{
  "version": "1.0",
  "truncation": null,
  "padding": null,
  "added_tokens": [
    {
      "id": 0,
      "content": "<|endoftext|>",
      "single_word": false,
      "lstrip": false,
      "rstrip": false,
      "normalized": false,
      "special": true
    },
    {
      "id": 1,
      "content": "<|pad|>",
      "single_word": false,
      "lstrip": false,
      "rstrip": false,
      "normalized": false,
      "special": true
    }
  ],
  "normalizer": null,
  "pre_tokenizer": {
    "type": "ByteLevel",
    "add_prefix_space": true,
    "trim_offsets": true,
    "use_regex": true
  },
  "post_processor": {
    "type": "ByteLevel",
    "add_prefix_space": true,
    "trim_offsets": true,
    "use_regex": true
  },
  "decoder": {
    "type": "ByteLevel",
    "add_prefix_space": true,
    "trim_offsets": true,
    "use_regex": true
  },
  "model": {
    "type": "BPE",
    "dropout": null,
    "unk_token": null,
    "continuing_subword_prefix": null,
    "end_of_word_suffix": null,
    "fuse_unk": false,
    "byte_fallback": false,
    "ignore_merges": false,
    "vocab": {
      "<|endoftext|>": 0,
      "<|pad|>": 1,
      "!": 2,
      "\"": 3,
      "#": 4,
      "$": 5,
      "%": 6,
      "&": 7,
      "'": 8,
      "(": 9,
      ")": 10,
      "*": 11,
      "+": 12,
      ",": 13,
      "-": 14,
      ".": 15,
      "/": 16,
      "0": 17,
      "1": 18,
      "2": 19,
      "3": 20,
      "4": 21,
      "5": 22,
      "6": 23,
      "7": 24,
      "8": 25,
      "9": 26,
      ":": 27,
      ";": 28,
      "<": 29,
      "=": 30,
      ">": 31,
      "?": 32,
      "@": 33,
      "A": 34,
      "B": 35,
      "C": 36,
      "D": 37,
      "E": 38,
      "F": 39,
      "G": 40,
      "H": 41,
      "I": 42,
      "J": 43,
      "K": 44,
      "L": 45,
      "M": 46,
      "N": 47,
      "O": 48,
      "P": 49,
      "Q": 50,
      "R": 51,
      "S": 52,
      "T": 53,
      "U": 54,
      "V": 55,
      "W": 56,
      "X": 57,
      "Y": 58,
      "Z": 59,
      "[": 60,
      "\\": 61,
      "]": 62,
      "^": 63,
      "_": 64,
      "`": 65,
      "a": 66,
      "b": 67,
      "c": 68,
      "d": 69,
      "e": 70,
      "f": 71,
      "g": 72,
      "h": 73,
      "i": 74,
      "j": 75,
      "k": 76,
      "l": 77,
      "m": 78,
      "n": 79,
      "o": 80,
      "p": 81,
      "q": 82,
      "r": 83,
      "s": 84,
      "t": 85,
      "u": 86,
      "v": 87,
      "w": 88,
      "x": 89,
      "y": 90,
      "z": 91,
      "{": 92,
      "|": 93,
      "}": 94,
      "~": 95,
      "¡": 96,
      "¢": 97,
      "£": 98,
      "¤": 99,
      "¥": 100,
      "¦": 101,
      "§": 102,
      "¨": 103,
      "©": 104,
      "ª": 105,
      "«": 106,
      "¬": 107,
      "®": 108,
      "¯": 109,
      "°": 110,
      "±": 111,
      "²": 112,
      "³": 113,
      "´": 114,
      "µ": 115,
      "¶": 116,
      "·": 117,
      "¸": 118,
      "¹": 119,
      "º": 120,
      "»": 121,
      "¼": 122,
      "½": 123,
      "¾": 124,
      "¿": 125,
      "À": 126,
      "Á": 127,
      "Â": 128,
      "Ã": 129,
      "Ä": 130,
      "Å": 131,
      "Æ": 132,
      "Ç": 133,
      "È": 134,
      "É": 135,
      "Ê": 136,
      "Ë": 137,
      "Ì": 138,
      "Í": 139,
      "Î": 140,
      "Ï": 141,
      "Ð": 142,
      "Ñ": 143,
      "Ò": 144,
      "Ó": 145,
      "Ô": 146,
      "Õ": 147,
      "Ö": 148,
      "×": 149,
      "Ø": 150,
      "Ù": 151,
      "Ú": 152,
      "Û": 153,
      "Ü": 154,
      "Ý": 155,
      "Þ": 156,
      "ß": 157,
      "à": 158,
      "á": 159,
      "â": 160,
      "ã": 161,
      "ä": 162,
      "å": 163,
      "æ": 164,
      "ç": 165,
      "è": 166,
      "é": 167,
      "ê": 168,
      "ë": 169,
      "ì": 170,
      "í": 171,
      "î": 172,
      "ï": 173,
      "ð": 174,
      "ñ": 175,
      "ò": 176,
      "ó": 177,
      "ô": 178,
      "õ": 179,
      "ö": 180,
      "÷": 181,
      "ø": 182,
      "ù": 183,
      "ú": 184,
      "û": 185,
      "ü": 186,
      "ý": 187,
      "þ": 188,
      "ÿ": 189,
      "Ā": 190,
      "ā": 191,
      "Ă": 192,
      "ă": 193,
      "Ą": 194,
      "ą": 195,
      "Ć": 196,
      "ć": 197,
      "Ĉ": 198,
      "ĉ": 199,
      "Ċ": 200,
      "ċ": 201,
      "Č": 202,
      "č": 203,
      "Ď": 204,
      "ď": 205,
      "Đ": 206,
      "đ": 207,
      "Ē": 208,
      "ē": 209,
      "Ĕ": 210,
      "ĕ": 211,
      "Ė": 212,
      "ė": 213,
      "Ę": 214,
      "ę": 215,
      "Ě": 216,
      "ě": 217,
      "Ĝ": 218,
      "ĝ": 219,
      "Ğ": 220,
      "ğ": 221,
      "Ġ": 222,
      "ġ": 223,
      "Ģ": 224,
      "ģ": 225,
      "Ĥ": 226,
      "ĥ": 227,
      "Ħ": 228,
      "ħ": 229,
      "Ĩ": 230,
      "ĩ": 231,
      "Ī": 232,
      "ī": 233,
      "Ĭ": 234,
      "ĭ": 235,
      "Į": 236,
      "į": 237,
      "İ": 238,
      "ı": 239,
      "Ĳ": 240,
      "ĳ": 241,
      "Ĵ": 242,
      "ĵ": 243,
      "Ķ": 244,
      "ķ": 245,
      "ĸ": 246,
      "Ĺ": 247,
      "ĺ": 248,
      "Ļ": 249,
      "ļ": 250,
      "Ľ": 251,
      "ľ": 252,
      "Ŀ": 253,
      "ŀ": 254,
      "Ł": 255,
      "ł": 256,
      "Ń": 257,
      "Ġt": 258,
      "he": 259,
      "Ġa": 260,
      "Ġo": 261,
      "Ġ.": 262,
      "in": 263,
      "Ġthe": 264,
      "re": 265,
      "ĠĊ": 266,
      "on": 267,
      "at": 268,
      "er": 269,
      "Ġs": 270,
      "en": 271,
      "Ġc": 272,
      "is": 273,
      "Ġof": 274,
      "es": 275,
      "or": 276,
      "it": 277,
      "Ġp": 278,
      "ion": 279,
      "an": 280,
      "Ġw": 281,
      "al": 282,
      "Ġin": 283,
      "Ġan": 284,
      "Ġf": 285,
      "Ġb": 286,
      "ed": 287,
      "ar": 288,
      "ic": 289,
      "..": 290,
      "Ġm": 291,
      "Ġd": 292,
      "ro": 293,
      "le": 294,
      "Ġe": 295,
      "Ġand": 296,
      "Ġto": 297,
      "ct": 298,
      "ing": 299,
      "Ġth": 300,
      "as": 301,
      "ent": 302,
      "ĠT": 303,
      "Ġ1": 304,
      "Ġre": 305,
      "Ġ(": 306,
      "âĢ": 307,
      "ou": 308,
      "Ġh": 309,
      "om": 310,
      "Ġis": 311,
      "ve": 312,
      "Ġn": 313,
      "ation": 314,
      "ĠA": 315,
      "st": 316,
      "ly": 317,
      "et": 318,
      "....": 319,
      "Ġl": 320,
      "im": 321,
      "ĠS": 322,
      "Ġ2": 323,
      "ig": 324,
      "se": 325,
      "il": 326,
      "ut": 327,
      "Ġthat": 328,
      "ot": 329,
      "Ġbe": 330,
      "ĠC": 331,
      "Ġg": 332,
      "id": 333,
      "Ġfor": 334,
      "ce": 335,
      "ol": 336,
      "ĠThe": 337,
      "ow": 338,
      "ur": 339,
      "Ġon": 340,
      "ĠI": 341,
      "un": 342,
      "am": 343,
      "Ġpro": 344,
      "ch": 345,
      "ul": 346,
      "qu": 347,
      "Ġst": 348,
      "um": 349,
      "ction": 350,
      "Ġcon": 351,
      "Ġ=": 352,
      "Ġas": 353,
      "ver": 354,
      "ri": 355,
      "ĠP": 356,
      "ĠE": 357,
      "ra": 358,
      "ith": 359,
      "âĪ": 360,
      "Ġwe": 361,
      "ĠM": 362,
      "ĠâĢ": 363,
      "ĠR": 364,
      "ĠH": 365,
      "us": 366,
      "ĠO": 367,
      "Ġal": 368,
      "Ġ3": 369,
      "ate": 370,
      "Ġex": 371,
      "ĠF": 372,
      "ay": 373,
      "ter": 374,
      "ĠB": 375,
      "ure": 376,
      "ir": 377,
      "Ġwh": 378,
      "Ġare": 379,
      "od": 380,
      "Ġde": 381,
      "ab": 382,
      "Ġv": 383,
      "........": 384,
      "Ġwith": 385,
      "el": 386,
      "her": 387,
      "ge": 388,
      "ĠN": 389,
      "Ġby": 390,
      "Ġit": 391,
      "Ġsu": 392,
      "Ġor": 393,
      "Ġat": 394,
      "ï¬": 395,
      "ity": 396,
      "ist": 397,
      "ive": 398,
      "pp": 399,
      "Ġcom": 400,
      "ant": 401,
      "ad": 402,
      "rom": 403,
      "ĠâĪ": 404,
      "ĠL": 405,
      "Ġr": 406,
      "res": 407,
      "iv": 408,
      "op": 409,
      "if": 410,
      "du": 411,
      "Ġ0": 412,
      "os": 413,
      "ĠW": 414,
      "ric": 415,
      "ies": 416,
      "and": 417,
      "Ġ*": 418,
      "ment": 419,
      "Ġthis": 420,
      "ĠâĢ¢": 421,
      "ĠD": 422,
      "ore": 423,
      "Ġse": 424,
      "ich": 425,
      "th": 426,
      "Ġfrom": 427,
      "Ġ4": 428,
      "ain": 429,
      "est": 430,
      "Ġ+": 431,
      "ect": 432,
      "ical": 433,
      "ere": 434,
      "ib": 435,
      "ĠIn": 436,
      "ave": 437,
      "00": 438,
      "Ġk": 439,
      "ers": 440,
      "art": 441,
      "oun": 442,
      "pl": 443,
      "Ġwhich": 444,
      "ld": 445,
      "iz": 446,
      "ĠĠ": 447,
      "ï¬ģ": 448,
      "ap": 449,
      "Ġ5": 450,
      "ill": 451,
      "ial": 452,
      "Ġsh": 453,
      "ĠG": 454,
      "ition": 455,
      "Ġch": 456,
      "Ġnot": 457,
      ").": 458,
      "Ġen": 459,
      "Ġun": 460,
      "Ġcomp": 461,
      "Ġy": 462,
      "pt": 463,
      "ations": 464,
      "Ġcan": 465,
      "em": 466,
      "ated": 467,
      "igh": 468,
      "ac": 469,
      "ess": 470,
      "Ġwhe": 471,
      "ĠâĪĴ": 472,
      "ian": 473,
      "oc": 474,
      "gy": 475,
      "Ġwas": 476,
      "Ġhave": 477,
      "Ġne": 478,
      "ther": 479,
      "Ġ6": 480,
      "Ġx": 481,
      "Ġle": 482,
      "all": 483,
      "yl": 484,
      "ine": 485,
      "ost": 486,
      "Ġres": 487,
      "ates": 488,
      "ast": 489,
      "act": 490,
      "ult": 491,
      "Ġone": 492,
      "ĠU": 493,
      "................": 494,
      "ould": 495,
      "ak": 496,
      "Ġ19": 497,
      "ĠTh": 498,
      "ort": 499,
      "ds": 500,
      "per": 501,
      "con": 502,
      "ud": 503,
      "ose": 504,
      "ag": 505,
      "Ġint": 506,
      "Ġu": 507,
      "able": 508,
      "sion": 509,
      "Ġsp": 510,
      "ple": 511,
      "Ġper": 512,
      "Ġoo": 513,
      "Ġac": 514,
      "lect": 515,
      "ĠK": 516,
      "),": 517,
      "Ġus": 518,
      "Ġprodu": 519,
      "our": 520,
      "Ġinc": 521,
      "igure": 522,
      "ust": 523,
      "red": 524,
      "ans": 525,
      "Ġequ": 526,
      "ome": 527,
      "ff": 528,
      "ĠÎ": 529,
      "Ġall": 530,
      "alu": 531,
      "Ġqu": 532,
      "ach": 533,
      "Ġim": 534,
      "âŁ": 535,
      "age": 536,
      "ass": 537,
      "Ġad": 538,
      "Ġhe": 539,
      "rib": 540,
      "lor": 541,
      "Ġab": 542,
      "Ġpl": 543,
      "og": 544,
      "Ġpo": 545,
      "Ġcl": 546,
      "unction": 547,
      "âĢĻ": 548,
      "ight": 549,
      "rou": 550,
      "ence": 551,
      "ĠJ": 552,
      "Ġcont": 553,
      "nt": 554,
      "Ġapp": 555,
      "ry": 556,
      "int": 557,
      "Ġdi": 558,
      "ide": 559,
      "ber": 560,
      "Ġ,": 561,
      "Ġtw": 562,
      "action": 563,
      "ame": 564,
      "Ġ7": 565,
      "Ġpart": 566,
      "orm": 567,
      "ong": 568,
      "der": 569,
      "ase": 570,
      "ari": 571,
      "ution": 572,
      "aylor": 573,
      "ci": 574,
      "Ġwere": 575,
      "vel": 576,
      "Ġï¬ģ": 577,
      "ding": 578,
      "Ġreg": 579,
      "ors": 580,
      "Ġhas": 581,
      "tt": 582,
      "Ġme": 583,
      "Ġform": 584,
      "ia": 585,
      "gh": 586,
      "Ġtwo": 587,
      "ĠFigure": 588,
      "ous": 589,
      "Ġwill": 590,
      "Ġtr": 591,
      "Ġgo": 592,
      "ents": 593,
      "ary": 594,
      "ks": 595,
      "âĢĿ": 596,
      "Ġmod": 597,
      "erm": 598,
      "Ġmore": 599,
      "ĠX": 600,
      "Ġsub": 601,
      "de": 602,
      "dition": 603,
      "ign": 604,
      "oth": 605,
      "ĠâĢľ": 606,
      "ie": 607,
      "ĠAf": 608,
      "Ġmar": 609,
      "Ġother": 610,
      "Ġcur": 611,
      "ĠThis": 612,
      "Ġj": 613,
      "ĠĠĠĠ": 614,
      "Ġtheir": 615,
      "Ġwhere": 616,
      "Ġdis": 617,
      "Ġar": 618,
      "âĢĵ": 619,
      "Ġ-": 620,
      "Ġexp": 621,
      "Ġfunction": 622,
      "au": 623,
      "we": 624,
      "Ġco": 625,
      "ten": 626,
      "Ġprob": 627,
      "Ġits": 628,
      "ative": 629,
      "Ġshow": 630,
      "Ġthese": 631,
      "Ġinter": 632,
      "ec": 633,
      "ces": 634,
      "Ġwor": 635,
      "Ġob": 636,
      "Ġfir": 637,
      "Ġbet": 638,
      "ount": 639,
      "oo": 640,
      "Ġâ": 641,
      "Ġout": 642,
      "19": 643,
      "âŁ©": 644,
      "org": 645,
      "Ġso": 646,
      "ĠV": 647,
      "Ġthan": 648,
      "av": 649,
      "ub": 650,
      "hen": 651,
      "ree": 652,
      "Ġsy": 653,
      "Ġpos": 654,
      "ĠAfric": 655,
      "ron": 656,
      "Ġvalu": 657,
      "âĢ¢": 658,
      "ance": 659,
      "ular": 660,
      "Ġbut": 661,
      "ally": 662,
      "so": 663,
      "Ġthey": 664,
      "Ġthere": 665,
      "conom": 666,
      "Ġ9": 667,
      "Ġcons": 668,
      "Ġi": 669,
      "Ġbec": 670,
      "Ġdo": 671,
      "Ġ8": 672,
      "ard": 673,
      "Ġpric": 674,
      "out": 675,
      "Ġev": 676,
      "ll": 677,
      "cl": 678,
      "hap": 679,
      "ample": 680,
      "Ġmodel": 681,
      "ĠAn": 682,
      "ang": 683,
      "Ġsuch": 684,
      "Ġeach": 685,
      "ween": 686,
      "Ġ10": 687,
      "Ġwould": 688,
      "arb": 689,
      "Ġbetween": 690,
      "Ġrel": 691,
      "Ġreaction": 692,
      "Ġimp": 693,
      "Ġif": 694,
      "ata": 695,
      "Ġtim": 696,
      "als": 697,
      "Ġtra": 698,
      "eth": 699,
      "ener": 700,
      "ole": 701,
      "ĠÂ": 702,
      "Ġonly": 703,
      "ww": 704,
      "Ġener": 705,
      "Ġalso": 706,
      "ĠIt": 707,
      "end": 708,
      "ace": 709,
      "ound": 710,
      "ange": 711,
      "ph": 712,
      "ĠSt": 713,
      "Ġro": 714,
      "Ġpoint": 715,
      "tain": 716,
      "ions": 717,
      "form": 718,
      "ne": 719,
      "oll": 720,
      "ep": 721,
      "cc": 722,
      "ear": 723,
      "âĢ¢âĢ¢": 724,
      "Ġtrans": 725,
      "Ġvari": 726,
      "ĠWe": 727,
      "Ġass": 728,
      "ite": 729,
      "ause": 730,
      "Ġnum": 731,
      "fere": 732,
      "ced": 733,
      "are": 734,
      "ĠSaylor": 735,
      "gypt": 736,
      "âĪĴ": 737,
      "ile": 738,
      "one": 739,
      "ene": 740,
      "ue": 741,
      "ility": 742,
      "ik": 743,
      "ack": 744,
      "Ġra": 745,
      "erv": 746,
      "ise": 747,
      "Ġbeen": 748,
      "pon": 749,
      "very": 750,
      "inal": 751,
      "Ġsome": 752,
      "Ġpre": 753,
      "ory": 754,
      "ru": 755,
      "Ġprice": 756,
      "ater": 757,
      "Ġquant": 758,
      "Ġam": 759,
      "roup": 760,
      "stit": 761,
      "10": 762,
      "Ġstate": 763,
      "Ġincre": 764,
      "ËĨ": 765,
      "ĠEgypt": 766,
      "Ġeconom": 767,
      "Ġthen": 768,
      "Ġdata": 769,
      "ĠZ": 770,
      "Ġdem": 771,
      "ĠÏ": 772,
      "Ġrep": 773,
      "ities": 774,
      "les": 775,
      "Ġelect": 776,
      "Ġsim": 777,
      "Ġdes": 778,
      "ax": 779,
      "Ġclass": 780,
      "Ġexample": 781,
      "âĢ²": 782,
      "Ġsupp": 783,
      "Ġcurve": 784,
      "ket": 785,
      "ip": 786,
      "Ġag": 787,
      "ox": 788,
      "ict": 789,
      "Ġwhen": 790,
      "lem": 791,
      "xt": 792,
      "ĠRe": 793,
      "sis": 794,
      "velop": 795,
      "ression": 796,
      "Ġcent": 797,
      "uted": 798,
      "Ġgener": 799,
      "**": 800,
      "now": 801,
      "Ġgiv": 802,
      "Ġfact": 803,
      "Ġinto": 804,
      "Ġenergy": 805,
      "ible": 806,
      "Ġresult": 807,
      "ics": 808,
      "Ġ|": 809,
      "ĠAfrica": 810,
      "Ġany": 811,
      "Ġ'": 812,
      "Ġman": 813,
      "Ġdif": 814,
      "Ġsame": 815,
      "ens": 816,
      "Ġem": 817,
      "Ġover": 818,
      "ium": 819,
      "te": 820,
      "ods": 821,
      "yd": 822,
      "Ġz": 823,
      "Ġpartic": 824,
      "Ġtime": 825,
      "ï£": 826,
      "Ġno": 827,
      "................................": 828,
      "hem": 829,
      "Ġgroup": 830,
      "Ġuse": 831,
      "ized": 832,
      "Ġcost": 833,
      "Ġhad": 834,
      "ove": 835,
      "Ġsm": 836,
      "Ġset": 837,
      "Ġproduct": 838,
      "Ġ12": 839,
      "ĠPro": 840,
      "yp": 841,
      "Ġdemand": 842,
      "Ġunder": 843,
      "ĠAs": 844,
      "ĠEx": 845,
      "Ġdist": 846,
      "Ġdisc": 847,
      "Ġsc": 848,
      "ice": 849,
      "resent": 850,
      "ĠFor": 851,
      "Ġsol": 852,
      "Ġer": 853,
      "Ġline": 854,
      "Ġcor": 855,
      "gr": 856,
      "Ġâī": 857,
      "Ġhow": 858,
      "Ġpe": 859,
      "Ġ14": 860,
      "ization": 861,
      "ress": 862,
      "Ġest": 863,
      "Ġeff": 864,
      "ments": 865,
      "Ġappro": 866,
      "ake": 867,
      "Ġbas": 868,
      "fore": 869,
      "Ġlar": 870,
      "11": 871,
      "ord": 872,
      "stem": 873,
      "Ġbecause": 874,
      "Ġ200": 875,
      "olec": 876,
      "//": 877,
      "Ġacc": 878,
      "ĠY": 879,
      "://": 880,
      "ttp": 881,
      "ĠIf": 882,
      "Ġterm": 883,
      "Ġhttp": 884,
      "tern": 885,
      "und": 886,
      "Ġnumber": 887,
      "uc": 888,
      "Ġdet": 889,
      "ire": 890,
      "Ġfirm": 891,
      "Ġ[": 892,
      "ï¬Ģ": 893,
      "Ġused": 894,
      "rough": 895,
      "Ġmay": 896,
      "ond": 897,
      "ĠËĨ": 898,
      "Ġpp": 899,
      "Ġmat": 900,
      "ail": 901,
      "Ġcarb": 902,
      "ating": 903,
      "Ġdec": 904,
      "Ġwork": 905,
      "Ġthem": 906,
      "Ġelectron": 907,
      "Ġposs": 908,
      "ĠSe": 909,
      "Ġredu": 910,
      "Ġsystem": 911,
      "its": 912,
      "itten": 913,
      "ational": 914,
      "ĠAl": 915,
      "Ġknow": 916,
      "Ġind": 917,
      "Ġdevelop": 918,
      "Ġabout": 919,
      "Ġcount": 920,
      "Ġcomm": 921,
      "ĠUn": 922,
      ".,": 923,
      "ough": 924,
      "12": 925,
      "Ġvalue": 926,
      "ike": 927,
      "Ġfe": 928,
      "ied": 929,
      "Ġhis": 930,
      "Ġ$": 931,
      "ower": 932,
      "ject": 933,
      "aly": 934,
      "Ġsee": 935,
      "Ġmon": 936,
      "Ġ20": 937,
      "ons": 938,
      "ves": 939,
      "Ġour": 940,
      "Ġprobab": 941,
      "Ġatom": 942,
      "Ġoper": 943,
      "hed": 944,
      "ically": 945,
      "Â¬": 946,
      "ty": 947,
      "Ġcase": 948,
      "Ġear": 949,
      "Ġstud": 950,
      "bit": 951,
      "ero": 952,
      "ĠLib": 953,
      "ential": 954,
      "Ġwell": 955,
      "Ġmeth": 956,
      "ĠĠĠĠĠĠĠĠ": 957,
      "by": 958,
      "ginal": 959,
      "Ġpar": 960,
      "Ġmost": 961,
      "ature": 962,
      "ollow": 963,
      "ind": 964,
      "ual": 965,
      "ural": 966,
      "Ġdep": 967,
      "Ġte": 968,
      "Ġmarket": 969,
      "ever": 970,
      "cient": 971,
      "Ġproblem": 972,
      "ning": 973,
      "ven": 974,
      "Chap": 975,
      "Ġacid": 976,
      "âĢĶ": 977,
      "itive": 978,
      "ributed": 979,
      "reg": 980,
      "ĠTim": 981,
      "Ġequation": 982,
      "nce": 983,
      "Ġfollow": 984,
      "ered": 985,
      "ider": 986,
      "Ġfirst": 987,
      "Ġpr": 988,
      "Ġ11": 989,
      "Ġdiffere": 990,
      "ĠCh": 991,
      "tal": 992,
      "Ġ>": 993,
      "reat": 994,
      "put": 995,
      "ror": 996,
      "ĠSu": 997,
      "Ġstates": 998,
      "Ġcomple": 999,
      "Ġgiven": 1000,
      "ell": 1001,
      "ooks": 1002,
      "Ġmolec": 1003,
      "berg": 1004,
      "Ġocc": 1005,
      "Ġph": 1006,
      "Ġpot": 1007,
      "Ġpred": 1008,
      "ane": 1009,
      "Ġconst": 1010,
      "Ġel": 1011,
      "ana": 1012,
      "ish": 1013,
      "Ġway": 1014,
      "ince": 1015,
      "ruct": 1016,
      "Ġvery": 1017,
      "ted": 1018,
      "ings": 1019,
      "Ġpeop": 1020,
      "Ġwho": 1021,
      "ides": 1022,
      "ator": 1023,
      "ĠCom": 1024,
      "ft": 1025,
      "Ġact": 1026,
      "ases": 1027,
      "Ġimport": 1028,
      "iï¬ģ": 1029,
      "Ġsur": 1030,
      "Ġ199": 1031,
      "cond": 1032,
      "Ġmarginal": 1033,
      "cept": 1034,
      "Ġcould": 1035,
      "iod": 1036,
      "imin": 1037,
      "Ġatt": 1038,
      "Ġup": 1039,
      "Ġthrough": 1040,
      "Ġaddition": 1041,
      "ĠAtt": 1042,
      "Ġ13": 1043,
      "Ġmust": 1044,
      "Ġsmall": 1045,
      "wn": 1046,
      "Ġrem": 1047,
      "Ġyou": 1048,
      "ĠPh": 1049,
      "Ġprov": 1050,
      "Ġestim": 1051,
      "rate": 1052,
      "15": 1053,
      "Ġmin": 1054,
      "Ġ15": 1055,
      "oci": 1056,
      "gan": 1057,
      "www": 1058,
      "14": 1059,
      "Ġï£": 1060,
      "Ġinv": 1061,
      "Ġchar": 1062,
      "ood": 1063,
      "ule": 1064,
      "Ġvalues": 1065,
      "ute": 1066,
      "ize": 1067,
      "Ġlarge": 1068,
      "Ġboth": 1069,
      "ited": 1070,
      "igen": 1071,
      "cess": 1072,
      "ton": 1073,
      "âŁ¨": 1074,
      "vern": 1075,
      "uss": 1076,
      "cy": 1077,
      "Ġpredict": 1078,
      "Ġdoes": 1079,
      "books": 1080,
      "fer": 1081,
      "ix": 1082,
      "ctor": 1083,
      "ittenberg": 1084,
      "RL": 1085,
      "arthen": 1086,
      "fin": 1087,
      "othy": 1088,
      "ĠLibby": 1089,
      "ĠRittenberg": 1090,
      "ĠTimothy": 1091,
      "ĠTreg": 1092,
      "Ġlike": 1093,
      "Ġspec": 1094,
      "ĠTregarthen": 1095,
      "ĠWh": 1096,
      "ĠHow": 1097,
      "ĠURL": 1098,
      "saylor": 1099,
      "ĠMe": 1100,
      "ĠAttributed": 1101,
      "Ġwhat": 1102,
      "Ġgra": 1103,
      "other": 1104,
      "pect": 1105,
      "Ġes": 1106,
      "ries": 1107,
      "ism": 1108,
      "Ġpol": 1109,
      "Ġthose": 1110,
      "Ġeffect": 1111,
      "Ġcap": 1112,
      "Ġaid": 1113,
      ",âĢĿ": 1114,
      "000": 1115,
      "Ġnew": 1116,
      "Ġmany": 1117,
      "air": 1118,
      "Ġent": 1119,
      "Ġcol": 1120,
      "Ġtotal": 1121,
      "iel": 1122,
      "alled": 1123,
      "Ġobs": 1124,
      "cent": 1125,
      "ĠGh": 1126,
      "Ġhigh": 1127,
      "Ġperiod": 1128,
      "ĠLet": 1129,
      "Ġeven": 1130,
      "ob": 1131,
      "Ġ18": 1132,
      "oh": 1133,
      "Ġlab": 1134,
      "ounds": 1135,
      "ĠÂ·": 1136,
      "Ġlinear": 1137,
      "ned": 1138,
      "Ġgro": 1139,
      "Ġlevel": 1140,
      "Ġrad": 1141,
      "ices": 1142,
      "Ġder": 1143,
      "ants": 1144,
      "ĠĀ": 1145,
      "Ġsecond": 1146,
      "Ġtyp": 1147,
      "rit": 1148,
      "Ġsl": 1149,
      "rop": 1150,
      "âĢ¢âĢ¢âĢ¢âĢ¢": 1151,
      "Ġeigen": 1152,
      "Î²": 1153,
      "ucle": 1154,
      "ah": 1155,
      "Ġfunctions": 1156,
      "lic": 1157,
      "Ġbel": 1158,
      "Ġregression": 1159,
      "par": 1160,
      "ĠÎ²": 1161,
      "ribution": 1162,
      "Ġloc": 1163,
      "Ġshown": 1164,
      "ĠGhana": 1165,
      "atic": 1166,
      "ient": 1167,
      "Ġdire": 1168,
      "ĠEgyptian": 1169,
      "ier": 1170,
      "ov": 1171,
      "hes": 1172,
      "Ġchange": 1173,
      "ydro": 1174,
      "ines": 1175,
      "oy": 1176,
      "Ġfound": 1177,
      "Ġusing": 1178,
      "ĠCl": 1179,
      "Ġless": 1180,
      "Ġnon": 1181,
      "ĠNe": 1182,
      "yn": 1183,
      "Ġpeople": 1184,
      "iqu": 1185,
      "chan": 1186,
      "Ġthree": 1187,
      "13": 1188,
      "ros": 1189,
      "vers": 1190,
      "Ġstep": 1191,
      "ivity": 1192,
      "ful": 1193,
      "Ġcho": 1194,
      "rix": 1195,
      "ident": 1196,
      "Ġ17": 1197,
      "Ġorbit": 1198,
      "Ġabove": 1199,
      "Ġmeas": 1200,
      "erc": 1201,
      "Ġshows": 1202,
      "Ġgovern": 1203,
      "Ġsign": 1204,
      "ays": 1205,
      "Ġreactions": 1206,
      "ibri": 1207,
      "Ġrespon": 1208,
      "Ġobtain": 1209,
      "Ġsubstit": 1210,
      "Ġ16": 1211,
      "Ġexpl": 1212,
      "ade": 1213,
      "Ġalk": 1214,
      "Ã©": 1215,
      "ulation": 1216,
      "Ġquantity": 1217,
      "ert": 1218,
      "Ġcentur": 1219,
      "ilibri": 1220,
      "Ġright": 1221,
      "Ġdesc": 1222,
      "omet": 1223,
      "Ġrepresent": 1224,
      "ining": 1225,
      "ages": 1226,
      "Ġlong": 1227,
      "Ġdeterm": 1228,
      "ĠThere": 1229,
      "med": 1230,
      "ists": 1231,
      "Ġshould": 1232,
      "uch": 1233,
      "Ġgood": 1234,
      "20": 1235,
      "Ġve": 1236,
      "ude": 1237,
      "Ġinte": 1238,
      "Ġneed": 1239,
      "Ġsou": 1240,
      "Ġdifferent": 1241,
      "Ġwave": 1242,
      "istic": 1243,
      "ertain": 1244,
      "Ġeconomic": 1245,
      "Ġdevelopment": 1246,
      "mm": 1247,
      "Ġexper": 1248,
      "old": 1249,
      "Ġobserv": 1250,
      "ract": 1251,
      "Ġdiï¬Ģ": 1252,
      "17": 1253,
      "',": 1254,
      "ilar": 1255,
      "olog": 1256,
      "ĠQ": 1257,
      "Ġpossible": 1258,
      "Ġsupply": 1259,
      "ĠSh": 1260,
      "Ġrequ": 1261,
      "ures": 1262,
      "ared": 1263,
      "ables": 1264,
      "oss": 1265,
      "Ġdon": 1266,
      "Ġyear": 1267,
      "ĠAd": 1268,
      "Ġorig": 1269,
      "ules": 1270,
      "Ġerror": 1271,
      "Ġsum": 1272,
      "oph": 1273,
      "ious": 1274,
      "ific": 1275,
      "amet": 1276,
      "Ġmatrix": 1277,
      "Ġplay": 1278,
      "ĠSupp": 1279,
      "Ġrate": 1280,
      "Ġprop": 1281,
      "Ġterms": 1282,
      "ank": 1283,
      "ension": 1284,
      "oub": 1285,
      "Ġproduction": 1286,
      "Ġpoints": 1287,
      "formation": 1288,
      "ys": 1289,
      "Ġï¬ģr": 1290,
      "****": 1291,
      "Ġserv": 1292,
      "Ġ<": 1293,
      "Ġaver": 1294,
      "sel": 1295,
      "ordin": 1296,
      "ilibrium": 1297,
      "ĠChap": 1298,
      "aw": 1299,
      "arch": 1300,
      "iron": 1301,
      "Ġgeneral": 1302,
      "man": 1303,
      "uring": 1304,
      "ts": 1305,
      "Ġpotential": 1306,
      "Ġprobability": 1307,
      "ditions": 1308,
      "axim": 1309,
      "oment": 1310,
      "50": 1311,
      "rodu": 1312,
      "ĠAr": 1313,
      "ĠCon": 1314,
      "Ġassum": 1315,
      "ually": 1316,
      "ycl": 1317,
      "Ġï¬ģn": 1318,
      "imension": 1319,
      "urn": 1320,
      "Ġcontin": 1321,
      "ĠâĪĤ": 1322,
      "gest": 1323,
      "Ġet": 1324,
      "Ġexpect": 1325,
      "Ġincrease": 1326,
      "Ġparticular": 1327,
      "ains": 1328,
      "ĠThese": 1329,
      "ather": 1330,
      "ting": 1331,
      "ward": 1332,
      "alysis": 1333,
      "Ġtest": 1334,
      "Ġcar": 1335,
      "Ġindu": 1336,
      "ern": 1337,
      "ink": 1338,
      "ĠDe": 1339,
      "ĠAfrican": 1340,
      "Ġtak": 1341,
      "Ġfore": 1342,
      "tle": 1343,
      "Ġmechan": 1344,
      "valu": 1345,
      "iew": 1346,
      "ital": 1347,
      "Ġsolution": 1348,
      "Ġpop": 1349,
      "Ġnucle": 1350,
      "Ġimportant": 1351,
      "Ġderiv": 1352,
      "Ġlog": 1353,
      "Ġdiï¬Ģere": 1354,
      "Ġconsider": 1355,
      "ner": 1356,
      "Ġmade": 1357,
      "ially": 1358,
      "âĢľ": 1359,
      "Ġele": 1360,
      "Ġlim": 1361,
      "ved": 1362,
      "Ġdeï¬ģ": 1363,
      "ivid": 1364,
      "Ġ196": 1365,
      "Ġcountry": 1366,
      "led": 1367,
      "Ġincl": 1368,
      "enef": 1369,
      "Ġoccur": 1370,
      "ĠChapter": 1371,
      "Ġ)": 1372,
      "16": 1373,
      "Ġlead": 1374,
      "erest": 1375,
      "Ġbl": 1376,
      "Ġâī¤": 1377,
      "anel": 1378,
      "Ġrec": 1379,
      "Ġbefore": 1380,
      "Ġbu": 1381,
      "Ġbond": 1382,
      "ook": 1383,
      "ae": 1384,
      "Ġthus": 1385,
      "Ġintegr": 1386,
      "gen": 1387,
      "ĠAt": 1388,
      "ins": 1389,
      "ined": 1390,
      "Ġequilibrium": 1391,
      "Ġjust": 1392,
      "up": 1393,
      "ÏĪ": 1394,
      "Ġsit": 1395,
      "Ġmoment": 1396,
      "gram": 1397,
      "Ġmuch": 1398,
      "Ġregion": 1399,
      "ross": 1400,
      "Ġinde": 1401,
      "Ġstudy": 1402,
      "Ġcult": 1403,
      "ording": 1404,
      "Ġrese": 1405,
      "Ġcalled": 1406,
      "iï¬ģc": 1407,
      "Ġnow": 1408,
      "ives": 1409,
      "ctions": 1410,
      "get": 1411,
      "The": 1412,
      "ara": 1413,
      "18": 1414,
      "ption": 1415,
      "hip": 1416,
      "sc": 1417,
      "Ġcle": 1418,
      "Ġdescrib": 1419,
      "inci": 1420,
      "xim": 1421,
      "Ġcoordin": 1422,
      "ĠâŁ¨": 1423,
      "hesis": 1424,
      "mmet": 1425,
      "Ġorder": 1426,
      "Ġincreas": 1427,
      "ĠOH": 1428,
      "Ġcentury": 1429,
      "oly": 1430,
      "ĠFig": 1431,
      "oxyl": 1432,
      "ources": 1433,
      "bor": 1434,
      "Ġmight": 1435,
      "oselect": 1436,
      "Ġcompet": 1437,
      "Ġext": 1438,
      "Ġconsum": 1439,
      "go": 1440,
      "the": 1441,
      "chn": 1442,
      "ĠHowever": 1443,
      "ĨĴ": 1444,
      "Ġmake": 1445,
      "fter": 1446,
      "Ġfre": 1447,
      "Ġwhile": 1448,
      "ĠNub": 1449,
      "Ġpay": 1450,
      "ral": 1451,
      "Ġparamet": 1452,
      "ols": 1453,
      "Ġhig": 1454,
      "olo": 1455,
      "ĠThen": 1456,
      "Ġï¬ģrst": 1457,
      "Ġfirms": 1458,
      "ples": 1459,
      "Ġbenef": 1460,
      "Ġfar": 1461,
      "Ġmeasure": 1462,
      "eng": 1463,
      "II": 1464,
      "ises": 1465,
      "Ġhist": 1466,
      "ĠPr": 1467,
      "ters": 1468,
      "ivil": 1469,
      "Ġsqu": 1470,
      "astic": 1471,
      "ï¬ĥ": 1472,
      "Â¯": 1473,
      "Ġallow": 1474,
      "me": 1475,
      "anges": 1476,
      "ision": 1477,
      "aving": 1478,
      "Ġaverage": 1479,
      "vent": 1480,
      "Ġdeg": 1481,
      "ĠÃ": 1482,
      "Ġbasis": 1483,
      "iance": 1484,
      "sw": 1485,
      "ively": 1486,
      "Ġoften": 1487,
      "Ġpresent": 1488,
      "respon": 1489,
      "bers": 1490,
      "ĠOr": 1491,
      "Ġgoods": 1492,
      "read": 1493,
      "Ġadd": 1494,
      "Ġagain": 1495,
      "val": 1496,
      "ither": 1497,
      "Ġang": 1498,
      "Ġhydro": 1499,
      "Ġcompon": 1500,
      "'s": 1501,
      "Ġtri": 1502,
      "Ġvariables": 1503,
      "pend": 1504,
      "Ġ197": 1505,
      "rel": 1506,
      "Ġmaxim": 1507,
      "Ġreas": 1508,
      "Ġlabor": 1509,
      "Ġleast": 1510,
      "22": 1511,
      "Ġfour": 1512,
      "Ġcertain": 1513,
      "ĠBut": 1514,
      "Ġdoub": 1515,
      "Ġnor": 1516,
      "Ġtransition": 1517,
      "Ġcapital": 1518,
      "ale": 1519,
      "Ġneg": 1520,
      "Ġpower": 1521,
      "Ġinterest": 1522,
      "ĠÎ±": 1523,
      "gor": 1524,
      "ily": 1525,
      "Ġmult": 1526,
      "Ġprogram": 1527,
      "ĠâĢĶ": 1528,
      "Ġorgan": 1529,
      "Ġleft": 1530,
      "Ġcorrespon": 1531,
      "Ġident": 1532,
      "Î±": 1533,
      "âĪĹ": 1534,
      "Ġgovernment": 1535,
      "ĠâĢĵ": 1536,
      "Ġav": 1537,
      "Ġanother": 1538,
      "own": 1539,
      "Ġsince": 1540,
      "Ġ25": 1541,
      "Ġcoe": 1542,
      "ĠSuppose": 1543,
      "ren": 1544,
      "Ġvariable": 1545,
      "Ġafter": 1546,
      "ators": 1547,
      "Ġbeing": 1548,
      "Ġincome": 1549,
      "not": 1550,
      "rees": 1551,
      "ones": 1552,
      "ork": 1553,
      "Ġquantum": 1554,
      "ality": 1555,
      "ER": 1556,
      "Ġmet": 1557,
      "fl": 1558,
      "onic": 1559,
      "Ġproper": 1560,
      "ructure": 1561,
      "Ġstand": 1562,
      "Ġdistribution": 1563,
      "ger": 1564,
      "atter": 1565,
      "Ġresults": 1566,
      "Ġprof": 1567,
      "Ġcomb": 1568,
      "Ġrespect": 1569,
      "Ġ50": 1570,
      "Ġworld": 1571,
      "Ġcharact": 1572,
      "mb": 1573,
      "ĠMar": 1574,
      "Ġzero": 1575,
      "Ġcomplex": 1576,
      "Ġvector": 1577,
      "Ġsimilar": 1578,
      "ians": 1579,
      "Ġsing": 1580,
      "Ġapproxim": 1581,
      "Ġtheory": 1582,
      "Ġ\"": 1583,
      "here": 1584,
      "Ġher": 1585,
      "medi": 1586,
      "25": 1587,
      "ath": 1588,
      "Ġoff": 1589,
      "Ġprinci": 1590,
      "ards": 1591,
      "Ġoutput": 1592,
      "Figure": 1593,
      "Ġket": 1594,
      "Ġ24": 1595,
      "Ġooo": 1596,
      "Ġindust": 1597,
      "Ġtrade": 1598,
      "cing": 1599,
      "ĠĂ": 1600,
      "Ġseem": 1601,
      "ram": 1602,
      "ote": 1603,
      "Ġvia": 1604,
      "Ġdiï¬Ģerent": 1605,
      "pre": 1606,
      "Ġ30": 1607,
      "ĠĠĠĠĠĠĠĠĠĠĠĠĠĠĠĠ": 1608,
      "ately": 1609,
      "Ġcarbon": 1610,
      "Ġser": 1611,
      "ished": 1612,
      "Ġalong": 1613,
      "Ġevery": 1614,
      "Ġtechn": 1615,
      "Ġpair": 1616,
      "Ġage": 1617,
      "Ġindic": 1618,
      "Ġlow": 1619,
      "Ġsug": 1620,
      "Ġaut": 1621,
      "Ġox": 1622,
      "Ġking": 1623,
      "Ġend": 1624,
      "Ġposition": 1625,
      "Ġdiscuss": 1626,
      "23": 1627,
      "Ġreact": 1628,
      "ithm": 1629,
      "sequ": 1630,
      "Ġgroups": 1631,
      "Ġbound": 1632,
      "wise": 1633,
      "Ġhand": 1634,
      "Ġed": 1635,
      "Ġ28": 1636,
      "thern": 1637,
      "Ġfactor": 1638,
      "Ġfollowing": 1639,
      "Ġpres": 1640,
      "ology": 1641,
      "Ġwr": 1642,
      "âŁ©=": 1643,
      "range": 1644,
      "Ġmak": 1645,
      "Ġconstant": 1646,
      "Ġwhose": 1647,
      "Ġshe": 1648,
      "round": 1649,
      "ĠLe": 1650,
      "amil": 1651,
      "Ġrelations": 1652,
      "rol": 1653,
      "Ġknown": 1654,
      "Ġcountries": 1655,
      "ior": 1656,
      "ck": 1657,
      "function": 1658,
      "Ġappear": 1659,
      "xts": 1660,
      "Ġhigher": 1661,
      "Ġinit": 1662,
      "Ġver": 1663,
      "Ġplace": 1664,
      "plit": 1665,
      "Ġfin": 1666,
      "ilities": 1667,
      "etic": 1668,
      "Ġeas": 1669,
      "Ġcharacter": 1670,
      "Ġ.................................": 1671,
      "verty": 1672,
      "Ġsouth": 1673,
      "Ġtake": 1674,
      "raph": 1675,
      "30": 1676,
      "ration": 1677,
      "omes": 1678,
      "Ġearly": 1679,
      "24": 1680,
      "Ġdom": 1681,
      "andom": 1682,
      "Ġexam": 1683,
      "Ġmethod": 1684,
      "200": 1685,
      "rab": 1686,
      "Ġval": 1687,
      "28": 1688,
      "gies": 1689,
      "Ġreven": 1690,
      "pper": 1691,
      "ffic": 1692,
      "Ġparticle": 1693,
      "Ġ29": 1694,
      "Ġgre": 1695,
      "Ġinvol": 1696,
      "Ġlocal": 1697,
      "Ġcompounds": 1698,
      "Ġiron": 1699,
      "Ġ27": 1700,
      "idence": 1701,
      "ublic": 1702,
      "Ġminim": 1703,
      "Ġsuggest": 1704,
      "Ġreal": 1705,
      "omer": 1706,
      "Ġgive": 1707,
      "Ġarg": 1708,
      "ised": 1709,
      "Ġ26": 1710,
      "Ġtem": 1711,
      "ĠThus": 1712,
      "ĠWhat": 1713,
      "actions": 1714,
      "ÏĢ": 1715,
      "Ġown": 1716,
      "Ġanalysis": 1717,
      "ĠTo": 1718,
      "Ġplot": 1719,
      "ares": 1720,
      "Ġpur": 1721,
      "Ġrest": 1722,
      "Ġexperim": 1723,
      "Î¸": 1724,
      "Ġtax": 1725,
      "ĠOne": 1726,
      "ological": 1727,
      "Ġant": 1728,
      "ariance": 1729,
      "Ġsingle": 1730,
      "oint": 1731,
      "Ġax": 1732,
      "ash": 1733,
      "Ġlit": 1734,
      "Ġamong": 1735,
      "Ġion": 1736,
      "Ġoperator": 1737,
      "Ġdonor": 1738,
      "Ġinst": 1739,
      "Ġplayer": 1740,
      "ination": 1741,
      "Ġformed": 1742,
      "Ġbo": 1743,
      "ĠWhen": 1744,
      "Ġrelative": 1745,
      "Ġinformation": 1746,
      "Ġmeans": 1747,
      "ency": 1748,
      "Ġpers": 1749,
      "ock": 1750,
      "ĠÎ¸": 1751,
      "29": 1752,
      "Ġindivid": 1753,
      "ok": 1754,
      "Ġstill": 1755,
      "Ġsubst": 1756,
      "gorithm": 1757,
      "Ġlower": 1758,
      "Ħĵ": 1759,
      "Ġdx": 1760,
      "Ġduring": 1761,
      "ield": 1762,
      "Ġ:": 1763,
      "Ġ{": 1764,
      "Ġmean": 1765,
      "Ġunit": 1766,
      "Ġgreat": 1767,
      "izations": 1768,
      "Ġtimes": 1769,
      "Ġarea": 1770,
      "Ġrather": 1771,
      "Ġwhether": 1772,
      "ocial": 1773,
      "Ġtype": 1774,
      "Ġstart": 1775,
      "ify": 1776,
      "ently": 1777,
      "ĠChem": 1778,
      "ploy": 1779,
      "Ġmolecule": 1780,
      "fect": 1781,
      "Ġā": 1782,
      "ĠĄ": 1783,
      "21": 1784,
      "Ġconver": 1785,
      "Ġprocess": 1786,
      "Ġfeature": 1787,
      "Ġmonop": 1788,
      "stitution": 1789,
      "aus": 1790,
      "Ġmain": 1791,
      "Ġeconomy": 1792,
      "xi": 1793,
      "Ġyears": 1794,
      "app": 1795,
      "Ġaff": 1796,
      "Ġfl": 1797,
      "idd": 1798,
      "Ġcour": 1799,
      "Ġcomput": 1800,
      "ense": 1801,
      "ĠBr": 1802,
      "alc": 1803,
      "Ġmethods": 1804,
      "ON": 1805,
      "RE": 1806,
      "ceed": 1807,
      "ĠThey": 1808,
      "Ġenol": 1809,
      "Ġ198": 1810,
      "Ġequal": 1811,
      "33": 1812,
      "Ġdra": 1813,
      "Ġdown": 1814,
      "idation": 1815,
      "Ġshif": 1816,
      "Ġcycl": 1817,
      "ull": 1818,
      "Ġamount": 1819,
      "ĠBy": 1820,
      "Ġbuil": 1821,
      "26": 1822,
      "Me": 1823,
      "aj": 1824,
      "pos": 1825,
      "atist": 1826,
      "Ġmolecules": 1827,
      "Ġ40": 1828,
      "Ġcurves": 1829,
      "Ġmodels": 1830,
      "Ġpoor": 1831,
      "196": 1832,
      "Ġreason": 1833,
      "27": 1834,
      "Ġhal": 1835,
      "ĠHe": 1836,
      "ormal": 1837,
      "Ġcross": 1838,
      "Ġpositive": 1839,
      "57": 1840,
      "ensity": 1841,
      "ĠSy": 1842,
      "iles": 1843,
      "Ġwithout": 1844,
      "nthesis": 1845,
      "Ġbest": 1846,
      "urther": 1847,
      "ĠRes": 1848,
      "Ġlater": 1849,
      "ĠâĪļ": 1850,
      "Ġeither": 1851,
      "Ġproduce": 1852,
      "Ġmill": 1853,
      "ĠEconom": 1854,
      "Ġdyn": 1855,
      "ety": 1856,
      "Ġgrow": 1857,
      "Ġlear": 1858,
      "Ġabs": 1859,
      "Ġreduction": 1860,
      "Ġret": 1861,
      "Ġrequi": 1862,
      "Ġclear": 1863,
      "Ġexist": 1864,
      "TI": 1865,
      "agn": 1866,
      "ĠSection": 1867,
      "Ġforeign": 1868,
      "rete": 1869,
      "Ġstr": 1870,
      "ried": 1871,
      "Ġcontinu": 1872,
      "oxylic": 1873,
      "AL": 1874,
      "Ġpri": 1875,
      "Ġphys": 1876,
      ")(": 1877,
      "less": 1878,
      "pec": 1879,
      "ĠAm": 1880,
      "ĠÎ»": 1881,
      "Ġtraining": 1882,
      "ĠReg": 1883,
      "ug": 1884,
      ".âĢĿ": 1885,
      "iop": 1886,
      "ĠEn": 1887,
      "Ġtherefore": 1888,
      "for": 1889,
      "aris": 1890,
      "aces": 1891,
      "Ġdepend": 1892,
      "Ġsymmet": 1893,
      "Ġexc": 1894,
      "Ġwithin": 1895,
      "ĠInd": 1896,
      "Ġconf": 1897,
      "Ġsurf": 1898,
      "Ġorbitals": 1899,
      "imensional": 1900,
      "Ġopp": 1901,
      "ivers": 1902,
      "Ġrule": 1903,
      "Ġproduced": 1904,
      "land": 1905,
      "ccess": 1906,
      "Ġhowever": 1907,
      "DA": 1908,
      "row": 1909,
      "Ġach": 1910,
      "enes": 1911,
      "Ġdid": 1912,
      "ird": 1913,
      "Ġadv": 1914,
      "Ġassoci": 1915,
      "Ġgives": 1916,
      "Ġback": 1917,
      "though": 1918,
      "ĠShow": 1919,
      "onal": 1920,
      "Ġcontain": 1921,
      "Ġapproach": 1922,
      "lection": 1923,
      "Ġprices": 1924,
      "gin": 1925,
      "Ġ23": 1926,
      "Ġï¬ģt": 1927,
      "ference": 1928,
      "Ġstrate": 1929,
      "ĠNubia": 1930,
      "Ġrevenue": 1931,
      "unity": 1932,
      "Ġnear": 1933,
      "Ġmomentum": 1934,
      "Ġfew": 1935,
      "Ġill": 1936,
      "ission": 1937,
      "Ġrandom": 1938,
      "Ġestimate": 1939,
      "Ġï¬ģnd": 1940,
      "Ġinclud": 1941,
      "Ġsin": 1942,
      "ĠPl": 1943,
      "197": 1944,
      "Ġq": 1945,
      "Ġ33": 1946,
      "Ġarch": 1947,
      "Ġchanges": 1948,
      "Ġclassical": 1949,
      "Ġdouble": 1950,
      "Ġcosts": 1951,
      "ĠProb": 1952,
      "ĠExerc": 1953,
      "Ġearl": 1954,
      "Ġcat": 1955,
      "Ġfall": 1956,
      "osed": 1957,
      "59": 1958,
      "Ġsk": 1959,
      "ars": 1960,
      "oad": 1961,
      "ĠSch": 1962,
      "plic": 1963,
      "Ġide": 1964,
      "ection": 1965,
      "imination": 1966,
      "swer": 1967,
      "Ġangular": 1968,
      "Ġcases": 1969,
      "Ġexpression": 1970,
      "come": 1971,
      "Ġatoms": 1972,
      "veral": 1973,
      "inear": 1974,
      "Ġtrue": 1975,
      "45": 1976,
      "ention": 1977,
      "ĠSub": 1978,
      "izing": 1979,
      "Ġcomplete": 1980,
      "ÏĨ": 1981,
      "Ġhim": 1982,
      "ĠCar": 1983,
      "ope": 1984,
      "Ġchap": 1985,
      "ĠThat": 1986,
      "Ġintrodu": 1987,
      "Ġindepend": 1988,
      "ĠCH": 1989,
      "Ġthough": 1990,
      "Ġland": 1991,
      "Ġstandard": 1992,
      "lied": 1993,
      "to": 1994,
      "Ġnat": 1995,
      "Ġpoverty": 1996,
      "self": 1997,
      "su": 1998,
      "Ġstere": 1999,
      "Ġconditions": 2000,
      "abl": 2001,
      "âĢ¢âĢ¢âĢ¢âĢ¢âĢ¢âĢ¢âĢ¢âĢ¢": 2002,
      "Ġservices": 2003,
      "Ġmechanism": 2004,
      "Ġcalc": 2005,
      "Ġbon": 2006,
      "ĠSo": 2007,
      "Ġget": 2008,
      "ĠLi": 2009,
      "Ġorigin": 2010,
      "Ġsitu": 2011,
      "pling": 2012,
      "Ġavail": 2013,
      "Ġside": 2014,
      "Ġconc": 2015,
      "Ġgraph": 2016,
      "):": 2017,
      "els": 2018,
      "Ġsuccess": 2019,
      "Ġproducts": 2020,
      "Ġbelow": 2021,
      "Ġ**": 2022,
      "Ġenergies": 2023,
      "Ġlikely": 2024,
      "Ġresponse": 2025,
      "dom": 2026,
      "Ġsocial": 2027,
      "Ġref": 2028,
      "ife": 2029,
      "Ġsepar": 2030,
      "Ġneigh": 2031,
      "Ġemploy": 2032,
      "Ġaccording": 2033,
      "Ġdirect": 2034,
      "Ġobtained": 2035,
      "ĠCons": 2036,
      "Ġhel": 2037,
      "aid": 2038,
      "Ġrot": 2039,
      "Ġalkyl": 2040,
      "ival": 2041,
      "199": 2042,
      "Ġpopulation": 2043,
      "io": 2044,
      "Ġresources": 2045,
      "angu": 2046,
      "Ġpolic": 2047,
      "Ġradical": 2048,
      "orld": 2049,
      "ĠOn": 2050,
      "Ġke": 2051,
      "off": 2052,
      "aries": 2053,
      "ĠEr": 2054,
      "Ġpossib": 2055,
      "jects": 2056,
      "min": 2057,
      "ways": 2058,
      "Ġweight": 2059,
      "Ġspin": 2060,
      "Ġresearch": 2061,
      "IC": 2062,
      "ving": 2063,
      "Ġmater": 2064,
      "Ġaccount": 2065,
      "ï¬Ĥ": 2066,
      "Ġincreases": 2067,
      "Ġachie": 2068,
      "Ġ36": 2069,
      "nal": 2070,
      "iss": 2071,
      "Ġins": 2072,
      "istry": 2073,
      "Ġ60": 2074,
      "ĠUnited": 2075,
      "ixt": 2076,
      "ograph": 2077,
      "Ġnucleoph": 2078,
      "ius": 2079,
      "arm": 2080,
      "ĠPer": 2081,
      "Ġcannot": 2082,
      "Ġtion": 2083,
      "alth": 2084,
      "Ġge": 2085,
      "deh": 2086,
      "))": 2087,
      "lib": 2088,
      "Ġcontrol": 2089,
      "Ġevidence": 2090,
      "ixed": 2091,
      "iï¬ģcation": 2092,
      "40": 2093,
      "ick": 2094,
      "Ġstructure": 2095,
      "Ġproblems": 2096,
      "Ġauth": 2097,
      "Ġdetail": 2098,
      "ength": 2099,
      "tical": 2100,
      "ising": 2101,
      "Ġ38": 2102,
      "ĠâĨĴ": 2103,
      "58": 2104,
      "Ġshort": 2105,
      "ĠÃĹ": 2106,
      "Ġindustry": 2107,
      "Ġspace": 2108,
      "ique": 2109,
      "Ġorbital": 2110,
      "Ġfree": 2111,
      "ley": 2112,
      "ames": 2113,
      "Ġtreat": 2114,
      "Ġxi": 2115,
      "Ġintermedi": 2116,
      "Ġillust": 2117,
      "nces": 2118,
      "ĠĠĊ": 2119,
      "Ġevalu": 2120,
      "Ġdiscussed": 2121,
      "Ġgreater": 2122,
      "Ġpract": 2123,
      "Ġalgorithm": 2124,
      "Ġmaterial": 2125,
      "AR": 2126,
      "rid": 2127,
      "Ġmove": 2128,
      "Ġnet": 2129,
      "lying": 2130,
      "ĠWith": 2131,
      "ource": 2132,
      "Ġera": 2133,
      "Ġreag": 2134,
      "ulf": 2135,
      "ĠMero": 2136,
      "ument": 2137,
      "ĠEqu": 2138,
      "Ġseveral": 2139,
      "Ġsupport": 2140,
      "Ġsmo": 2141,
      "Ġavailable": 2142,
      "ends": 2143,
      "ĠSince": 2144,
      "Ġselect": 2145,
      "chem": 2146,
      "pr": 2147,
      "Ġpanel": 2148,
      "ability": 2149,
      "clus": 2150,
      "Ġvarious": 2151,
      "********": 2152,
      "of": 2153,
      "Ġ39": 2154,
      "Ġelastic": 2155,
      "ĠComp": 2156,
      "ĠAcc": 2157,
      "Ġlangu": 2158,
      "Ġeigenvalu": 2159,
      "page": 2160,
      "enn": 2161,
      "Ġquest": 2162,
      "Ġcre": 2163,
      "lefin": 2164,
      "Ġname": 2165,
      "Ġfactors": 2166,
      "Ġremain": 2167,
      "Ġdirection": 2168,
      "ĠTable": 2169,
      "ably": 2170,
      "Ġhistory": 2171,
      "ged": 2172,
      "Ġdensity": 2173,
      "Ġ100": 2174,
      "Ġyour": 2175,
      "Ġperfect": 2176,
      "Ġclust": 2177,
      "ges": 2178,
      "Î»": 2179,
      "Ġchem": 2180,
      "ided": 2181,
      "Ġequations": 2182,
      "ecause": 2183,
      "ĠNew": 2184,
      "flu": 2185,
      "49": 2186,
      "isc": 2187,
      "Ġcourse": 2188,
      "Ġmaj": 2189,
      "Ġincreasing": 2190,
      "Ġseries": 2191,
      "Ġsurface": 2192,
      "az": 2193,
      "hood": 2194,
      "way": 2195,
      "ĠHence": 2196,
      "ĠAncient": 2197,
      "Ġspecial": 2198,
      "Ġpolit": 2199,
      "oe": 2200,
      "Ġestabl": 2201,
      "Ġspe": 2202,
      "Ġdiff": 2203,
      "ĠProf": 2204,
      "36": 2205,
      "ES": 2206,
      "Ġē": 2207,
      "atives": 2208,
      "Ġcrit": 2209,
      "ark": 2210,
      "Ġpublic": 2211,
      "Ġalways": 2212,
      "Ġhttps": 2213,
      "ready": 2214,
      "Ġcoeï¬ĥ": 2215,
      "35": 2216,
      "Ġancient": 2217,
      "ĠSim": 2218,
      "Ġexperiment": 2219,
      "ĠStates": 2220,
      "Ġnegative": 2221,
      "ients": 2222,
      "stand": 2223,
      "Ġcoordinates": 2224,
      "Ġloss": 2225,
      "ĠSN": 2226,
      "/@": 2227,
      "Ġtert": 2228,
      "ouse": 2229,
      "ĠHere": 2230,
      "ĠĒ": 2231,
      "enz": 2232,
      "Ġbased": 2233,
      "Ġcorresponding": 2234,
      "retexts": 2235,
      "libretexts": 2236,
      "54": 2237,
      "Ġelectrons": 2238,
      "Ġfrequ": 2239,
      "ias": 2240,
      "view": 2241,
      "ĠCarb": 2242,
      "Ġï¬ģel": 2243,
      "Ġcommon": 2244,
      "Ġstrong": 2245,
      "coh": 2246,
      "rict": 2247,
      "ĠIs": 2248,
      "ush": 2249,
      "Ġnumbers": 2250,
      "Ġlevels": 2251,
      "Ġalready": 2252,
      "Ġadditional": 2253,
      "abil": 2254,
      "Ġ57": 2255,
      "Ġhere": 2256,
      "Ġop": 2257,
      "Ġcos": 2258,
      "Ġview": 2259,
      "Ġsubs": 2260,
      "Ġnatural": 2261,
      "vious": 2262,
      "Ġthird": 2263,
      "rist": 2264,
      "ai": 2265,
      "Ġtop": 2266,
      "Ġnormal": 2267,
      "Ġlast": 2268,
      "ĠHamil": 2269,
      "ĠBank": 2270,
      "Ġrelationship": 2271,
      "Ġrun": 2272,
      "Ġable": 2273,
      "Ġclose": 2274,
      "Ġ37": 2275,
      "Ġsection": 2276,
      "ksum": 2277,
      "Ġsubstitution": 2278,
      "Ġrece": 2279,
      "Ġproced": 2280,
      "Ġunits": 2281,
      "31": 2282,
      "Ġsize": 2283,
      "urb": 2284,
      "ĠNa": 2285,
      "ĠÎ´": 2286,
      "Ġsimple": 2287,
      "Ġester": 2288,
      "Ġbenefit": 2289,
      "ĠArab": 2290,
      "li": 2291,
      "Ġut": 2292,
      "Ġchapter": 2293,
      "37": 2294,
      "Ġdeï¬ģned": 2295,
      "Ïī": 2296,
      "Ġsay": 2297,
      "amb": 2298,
      "ified": 2299,
      "ï¬Ģect": 2300,
      "Ġhelp": 2301,
      "pal": 2302,
      "son": 2303,
      "arrange": 2304,
      "Ġmot": 2305,
      "ortion": 2306,
      "ĠÏĨ": 2307,
      "Ġprim": 2308,
      "Ġoccup": 2309,
      "ĠNow": 2310,
      "Ġintegral": 2311,
      "55": 2312,
      "ending": 2313,
      "ĠNot": 2314,
      "ĠNile": 2315,
      "ĠVol": 2316,
      "Ġassociated": 2317,
      "Cl": 2318,
      "Ġexten": 2319,
      "irc": 2320,
      "Ġmulti": 2321,
      "amp": 2322,
      "tery": 2323,
      "Ġlet": 2324,
      "Ġrelig": 2325,
      "46": 2326,
      "IG": 2327,
      "Ġcoll": 2328,
      "Ġfurther": 2329,
      "ript": 2330,
      "Ġfollows": 2331,
      "Ġdescribed": 2332,
      "ivilizations": 2333,
      "Ġindividual": 2334,
      "39": 2335,
      "Ġlatter": 2336,
      "ĠII": 2337,
      "Ġalcoh": 2338,
      "orts": 2339,
      ".)": 2340,
      "Ġnecess": 2341,
      "Ġaround": 2342,
      "Ġinput": 2343,
      "Ġcondition": 2344,
      "ibr": 2345,
      "Ġamplit": 2346,
      "ydr": 2347,
      "ansion": 2348,
      "uman": 2349,
      "Ġmajor": 2350,
      "Ġpass": 2351,
      "Ġcorrel": 2352,
      "cies": 2353,
      "ences": 2354,
      "alk": 2355,
      "Ġhaving": 2356,
      "Ġbeh": 2357,
      "ived": 2358,
      "Ġ46": 2359,
      "ĠGa": 2360,
      "ĠÏĢ": 2361,
      "Ġlittle": 2362,
      "ĠHamilton": 2363,
      "iation": 2364,
      "Ġday": 2365,
      "Ġunt": 2366,
      "Ġearlier": 2367,
      "Ġgl": 2368,
      "Ġprot": 2369,
      "ĠMeth": 2370,
      "Ġvariance": 2371,
      "Ġground": 2372,
      "Ġsample": 2373,
      "Ġdev": 2374,
      "Ġdesign": 2375,
      "Ġoperators": 2376,
      "Ġcomponents": 2377,
      "32": 2378,
      "ex": 2379,
      "ead": 2380,
      "wh": 2381,
      "Ġmed": 2382,
      "rient": 2383,
      "Ġ48": 2384,
      "Ġformation": 2385,
      "Bu": 2386,
      "Ġopt": 2387,
      "Ġbetter": 2388,
      "wards": 2389,
      "thiop": 2390,
      "Ġregions": 2391,
      "velopment": 2392,
      "Ġbecome": 2393,
      "uals": 2394,
      "Ġcou": 2395,
      "Ġbro": 2396,
      "ĠAc": 2397,
      "ĠAksum": 2398,
      "Ġwhy": 2399,
      "arest": 2400,
      "Ġoriginal": 2401,
      "Ġsoci": 2402,
      "ances": 2403,
      "Ġfra": 2404,
      "Ġcompound": 2405,
      "Ġconsid": 2406,
      "ply": 2407,
      "Ġtoo": 2408,
      "olution": 2409,
      "ume": 2410,
      "ĠProblem": 2411,
      "38": 2412,
      "47": 2413,
      "over": 2414,
      "ĠMod": 2415,
      "Ġaffect": 2416,
      "Ġagainst": 2417,
      "Ġfeatures": 2418,
      "Ġinflu": 2419,
      "iversity": 2420,
      "ĠHO": 2421,
      "ĠÂ¯": 2422,
      "Ġprobably": 2423,
      "Ġseems": 2424,
      "ness": 2425,
      "Ġ22": 2426,
      "Ġindependent": 2427,
      "rast": 2428,
      "Ġwater": 2429,
      "ĠConsider": 2430,
      "rans": 2431,
      "Ġtheore": 2432,
      "ild": 2433,
      "Ġsmooth": 2434,
      "utes": 2435,
      "Ġrange": 2436,
      "Ġimpro": 2437,
      "ĠChrist": 2438,
      "ledge": 2439,
      "Ġcarbonyl": 2440,
      "56": 2441,
      "ĠFrom": 2442,
      "cher": 2443,
      "Âµ": 2444,
      "Ġ...": 2445,
      "edu": 2446,
      "Ġbegin": 2447,
      "ĠâĪĪ": 2448,
      "Ġgrowth": 2449,
      "ĠProfess": 2450,
      "34": 2451,
      "Ġolefin": 2452,
      "Ġmem": 2453,
      "Ġhor": 2454,
      "ĠEu": 2455,
      "ĠBecause": 2456,
      "Ġexpress": 2457,
      "ctors": 2458,
      "ĠPanel": 2459,
      "Ġdefin": 2460,
      "Ġworkers": 2461,
      "Ç«": 2462,
      "itic": 2463,
      "Ġexact": 2464,
      "Ġequival": 2465,
      "ief": 2466,
      "Ġuseful": 2467,
      "Ġhalf": 2468,
      "dimensional": 2469,
      "rent": 2470,
      "Ġpost": 2471,
      "Ġmixt": 2472,
      "ĠPress": 2473,
      "ĠBe": 2474,
      "Ġsat": 2475,
      "Ġsam": 2476,
      "plement": 2477,
      "ĠReactions": 2478,
      "pecially": 2479,
      "Ġuntil": 2480,
      "lev": 2481,
      "ĠAss": 2482,
      "Ġâī¡": 2483,
      "any": 2484,
      "imes": 2485,
      "ricult": 2486,
      "ylation": 2487,
      "Ġsix": 2488,
      "ids": 2489,
      "Ġaltern": 2490,
      "Ġseen": 2491,
      "ypot": 2492,
      "Ġdecision": 2493,
      "Ġhydrogen": 2494,
      "Ġsymmetry": 2495,
      "Ġcalcul": 2496,
      "Ġpolitical": 2497,
      "Ġlife": 2498,
      "ĠFir": 2499,
      "ĠWorld": 2500,
      "Ġcarboxylic": 2501,
      "ĠGree": 2502,
      "Ġdecre": 2503,
      "Ġcomponent": 2504,
      "ĠHamiltonian": 2505,
      "ĠApp": 2506,
      "Ġlook": 2507,
      "Ġ21": 2508,
      "48": 2509,
      "¯ï£": 2510,
      "ºï£": 2511,
      "Ġfun": 2512,
      "Ġsequ": 2513,
      "ĠÏĥ": 2514,
      "Ġmagn": 2515,
      "Ġaldeh": 2516,
      "Ġemp": 2517,
      "Ġactiv": 2518,
      "Ġsal": 2519,
      "Ġbar": 2520,
      "Ġlength": 2521,
      "ĠCivilizations": 2522,
      "ape": 2523,
      "Ġspect": 2524,
      "Ġmonopoly": 2525,
      "Ġdraw": 2526,
      "part": 2527,
      "ses": 2528,
      "Ġpat": 2529,
      "Ġkin": 2530,
      "Ġsteps": 2531,
      "ring": 2532,
      "Ġcirc": 2533,
      "anti": 2534,
      "Ġconsist": 2535,
      "Ġrole": 2536,
      "most": 2537,
      "Ġcis": 2538,
      "Ġread": 2539,
      "Ġperform": 2540,
      "Ġexpansion": 2541,
      "Ġgenerally": 2542,
      "ferred": 2543,
      "Ġwritten": 2544,
      "Ġï¬ģeld": 2545,
      "work": 2546,
      "Ġï": 2547,
      "Ġ49": 2548,
      "ĠInt": 2549,
      "izes": 2550,
      "aced": 2551,
      "42": 2552,
      "URE": 2553,
      "eric": 2554,
      "omen": 2555,
      "ĠFIG": 2556,
      "Ġvan": 2557,
      "anged": 2558,
      "ĠÂµ": 2559,
      "Ġsumm": 2560,
      "Ġlimit": 2561,
      "Ġincreased": 2562,
      "Ġinterpre": 2563,
      "Ġparameters": 2564,
      "Ġaxis": 2565,
      "ĠïĤ": 2566,
      ".),": 2567,
      "âĦĵ": 2568,
      "ĠAb": 2569,
      "ĠSah": 2570,
      "Ġassume": 2571,
      "Ġden": 2572,
      "Ġrearrange": 2573,
      "Ġlaw": 2574,
      "Ġdef": 2575,
      "Ġitself": 2576,
      "Ġsquares": 2577,
      "AN": 2578,
      "ii": 2579,
      "Ġrequire": 2580,
      "Ġturn": 2581,
      "anc": 2582,
      "Ġstone": 2583,
      "Ġdetermine": 2584,
      "Ġobservations": 2585,
      "Ġpen": 2586,
      "Ġeï¬Ģect": 2587,
      "ott": 2588,
      "Ġsubstitu": 2589,
      "Ġmakes": 2590,
      "itative": 2591,
      "Ġpoll": 2592,
      "Ġaccept": 2593,
      "Ġcoast": 2594,
      "ĠExpl": 2595,
      "rates": 2596,
      "Ġwavefunction": 2597,
      "equ": 2598,
      "udes": 2599,
      "Ġespecially": 2600,
      "51": 2601,
      "Ġeth": 2602,
      "cients": 2603,
      "ĠEgyptians": 2604,
      "Ġtaken": 2605,
      "sequently": 2606,
      "Ġmass": 2607,
      "Ġpoly": 2608,
      "Ġâī¥": 2609,
      "ĠUniversity": 2610,
      "Ġconsidered": 2611,
      "OH": 2612,
      "Ġhypot": 2613,
      "Ġorth": 2614,
      "Ġassign": 2615,
      "oselectivity": 2616,
      "LE": 2617,
      "ee": 2618,
      "edom": 2619,
      "ethyl": 2620,
      "Ġdistance": 2621,
      "Ġpredictors": 2622,
      "Ġri": 2623,
      "onium": 2624,
      "see": 2625,
      "adi": 2626,
      "Ġnorth": 2627,
      "my": 2628,
      "Ġsch": 2629,
      "Ġothers": 2630,
      "Ġcorre": 2631,
      "Ġexplain": 2632,
      "ĠQu": 2633,
      "Ġexpected": 2634,
      "ĠïĤ·": 2635,
      "Ġter": 2636,
      "alog": 2637,
      "omial": 2638,
      "ĠKing": 2639,
      "Ġusually": 2640,
      "asso": 2641,
      "Ġtradition": 2642,
      "Ġpottery": 2643,
      "Et": 2644,
      "Ġche": 2645,
      "Ġdu": 2646,
      "imal": 2647,
      "Ġvol": 2648,
      "Ġsec": 2649,
      "iddle": 2650,
      "Ġstrategy": 2651,
      "Ġarchae": 2652,
      "ĠProfessor": 2653,
      "anes": 2654,
      "romatic": 2655,
      "tic": 2656,
      "ĠË": 2657,
      "Ġfam": 2658,
      "ĠEt": 2659,
      "Ġbecomes": 2660,
      "Ġunderstand": 2661,
      "Ġcivil": 2662,
      "Ġprovide": 2663,
      "Ġsouthern": 2664,
      "ĠGauss": 2665,
      "atom": 2666,
      "orth": 2667,
      "icult": 2668,
      "Ġred": 2669,
      "ĠEthiop": 2670,
      "Ġeffic": 2671,
      "Ġenolate": 2672,
      "ĠCarth": 2673,
      "pri": 2674,
      "Ġfull": 2675,
      "que": 2676,
      "ussion": 2677,
      "xy": 2678,
      "ering": 2679,
      "Ġcaus": 2680,
      "ann": 2681,
      "ilic": 2682,
      "duct": 2683,
      "Ġcompetitive": 2684,
      "41": 2685,
      "Ġnext": 2686,
      "Ġimplement": 2687,
      "Ġchoice": 2688,
      "ometimes": 2689,
      "ased": 2690,
      "Ġhapp": 2691,
      "âĪŀ": 2692,
      "ĠâĪŀ": 2693,
      "Ġ58": 2694,
      "Ġbecame": 2695,
      "âĨĴ": 2696,
      "Ġrepl": 2697,
      "ĠBay": 2698,
      "osen": 2699,
      "asty": 2700,
      "oselective": 2701,
      "Ġcompetition": 2702,
      "Ġprocedure": 2703,
      "Ġdimension": 2704,
      "Ġtext": 2705,
      "]-": 2706,
      "rm": 2707,
      "Ġspl": 2708,
      "Ġsimply": 2709,
      "ĠËĨÎ²": 2710,
      "Ġknowledge": 2711,
      "rated": 2712,
      "ties": 2713,
      "Ġpure": 2714,
      "...": 2715,
      "Ġelectronic": 2716,
      "ĠOrgan": 2717,
      "ĠSp": 2718,
      "Ġpercent": 2719,
      "haps": 2720,
      "Ġentire": 2721,
      "Ġperson": 2722,
      "Ġutility": 2723,
      "Ġpath": 2724,
      "Ġgu": 2725,
      "Ġformul": 2726,
      "Ġcharge": 2727,
      "rope": 2728,
      "Ġsites": 2729,
      "60": 2730,
      "yde": 2731,
      "Ġhouse": 2732,
      "ilit": 2733,
      "ĠMore": 2734,
      "ernel": 2735,
      "day": 2736,
      "eli": 2737,
      "alls": 2738,
      "aves": 2739,
      "Ġprincipal": 2740,
      "Ġdifficult": 2741,
      "52": 2742,
      "ĠBl": 2743,
      "Ġoccurs": 2744,
      "Ġsatis": 2745,
      "sp": 2746,
      "ues": 2747,
      "icro": 2748,
      "ĠEl": 2749,
      "astere": 2750,
      "Ġreturn": 2751,
      "ĠOx": 2752,
      "Ġforms": 2753,
      "Ġinitial": 2754,
      "af": 2755,
      "por": 2756,
      "Ġaction": 2757,
      "ĠMed": 2758,
      "Ġareas": 2759,
      "Ġquite": 2760,
      "Ġreduce": 2761,
      "Ġtakes": 2762,
      "Ġfreedom": 2763,
      "sive": 2764,
      "Ġgame": 2765,
      "umn": 2766,
      "Ġsynthesis": 2767,
      "ĠAnswer": 2768,
      "ĠFIGURE": 2769,
      ");": 2770,
      "53": 2771,
      "uf": 2772,
      "Ġwage": 2773,
      "enth": 2774,
      "ĠAg": 2775,
      "ĠEast": 2776,
      "iven": 2777,
      "Ġtransform": 2778,
      "Ġsell": 2779,
      "encies": 2780,
      "Ġmov": 2781,
      "Ġsubject": 2782,
      "Ġminimum": 2783,
      "43": 2784,
      "ingu": 2785,
      "Ġagricult": 2786,
      "Ġinvest": 2787,
      "Ġprofit": 2788,
      "EN": 2789,
      "di": 2790,
      "Ġwant": 2791,
      "ĠCO": 2792,
      "âĢ²)": 2793,
      "ĠDevelopment": 2794,
      "Ġmixture": 2795,
      "Ġcare": 2796,
      "Ġbor": 2797,
      "uments": 2798,
      "istance": 2799,
      "ored": 2800,
      "Ġshall": 2801,
      "empt": 2802,
      "Ġapplic": 2803,
      "Ġspecies": 2804,
      "Ġrequired": 2805,
      "com": 2806,
      "just": 2807,
      "lex": 2808,
      "ĠDem": 2809,
      "ĠPhara": 2810,
      "Ġsense": 2811,
      "ĠTH": 2812,
      "ĠAll": 2813,
      "Ġsignific": 2814,
      "Ġdegrees": 2815,
      "atistical": 2816,
      "inc": 2817,
      "ĠMon": 2818,
      "osition": 2819,
      "Ġ59": 2820,
      "Ġnature": 2821,
      "Ġvibr": 2822,
      "Ġscal": 2823,
      "Ġcoordinate": 2824,
      "Ġintermediate": 2825,
      "Ġcity": 2826,
      "Ġthink": 2827,
      "Ġnever": 2828,
      "Ġsystems": 2829,
      "Ġattack": 2830,
      "Ġremains": 2831,
      "Ġquestion": 2832,
      "ĠExplain": 2833,
      "Ġ47": 2834,
      "Ġchoices": 2835,
      "Ġ<-": 2836,
      "Ġbonds": 2837,
      "ĠAccording": 2838,
      "dd": 2839,
      "ikeli": 2840,
      "Ġscale": 2841,
      "Ġappropri": 2842,
      "Ġneighbor": 2843,
      "ites": 2844,
      "be": 2845,
      "Î´": 2846,
      "ets": 2847,
      "ithium": 2848,
      "Ġsector": 2849,
      "ĠÏī": 2850,
      "Ġfind": 2851,
      "Ġconcept": 2852,
      "Ġcurrent": 2853,
      "âŁ©.": 2854,
      "Ġlarger": 2855,
      "Ġsmaller": 2856,
      "Ġelements": 2857,
      "Ġpolicy": 2858,
      "mit": 2859,
      "Ġsuper": 2860,
      "Ġdepends": 2861,
      "Ġparameter": 2862,
      "Ġ.................................................................": 2863,
      "AC": 2864,
      "sh": 2865,
      "ina": 2866,
      "Ġdy": 2867,
      "Ġalmost": 2868,
      "Ġ66": 2869,
      "Ġdemanded": 2870,
      "Ġculture": 2871,
      "Ġgeomet": 2872,
      "Ġequivalent": 2873,
      "Ġhuman": 2874,
      "Ġprom": 2875,
      "iral": 2876,
      "Ġ70": 2877,
      "arily": 2878,
      "ĠËĨf": 2879,
      "Ġreduced": 2880,
      "Ġeffects": 2881,
      "Ġslope": 2882,
      "¯ï£¯ï£": 2883,
      "ºï£ºï£": 2884,
      "pro": 2885,
      "aches": 2886,
      "lectron": 2887,
      "44": 2888,
      "ze": 2889,
      "Ġfood": 2890,
      "Ġlight": 2891,
      "ĠPR": 2892,
      "Ġexcept": 2893,
      "Ġcome": 2894,
      "Ġrules": 2895,
      "Ġcontains": 2896,
      "Ġphysical": 2897,
      "ikelihood": 2898,
      "called": 2899,
      "Ġexch": 2900,
      "Ġenough": 2901,
      "Ġinteraction": 2902,
      "mann": 2903,
      "Ġpayoff": 2904,
      "ĠError": 2905,
      "ats": 2906,
      "ields": 2907,
      "iques": 2908,
      "Ġblack": 2909,
      "Ġhistor": 2910,
      "Ġmaximum": 2911,
      "ĠĠĠĠĠĠĠĠĠĠĠĠĠĠĠĠĠĠĠĠĠĠĠĠĠĠĠĠĠĠĠĠ": 2912,
      "att": 2913,
      "ĠAN": 2914,
      "Ġgr": 2915,
      "ĠMO": 2916,
      "Ġunc": 2917,
      "Ġdiscussion": 2918,
      "Ġinsc": 2919,
      "urated": 2920,
      "Ġchlor": 2921,
      "selves": 2922,
      "Ġmechanics": 2923,
      "Ġlearning": 2924,
      "ĠEurope": 2925,
      "Ġwrit": 2926,
      "ournal": 2927,
      "fficient": 2928,
      "Ġ;": 2929,
      "ferences": 2930,
      "arent": 2931,
      "Ġprec": 2932,
      "olecular": 2933,
      "Ġapproximation": 2934,
      "oes": 2935,
      "sing": 2936,
      "uk": 2937,
      "viron": 2938,
      "zed": 2939,
      "Ïĥ": 2940,
      "Ġ/": 2941,
      "hex": 2942,
      "Ġorient": 2943,
      "ĠSud": 2944,
      "ĠCur": 2945,
      "ĠEquation": 2946,
      "eral": 2947,
      "Ġrecent": 2948,
      "ĠFin": 2949,
      "Ġcontrast": 2950,
      "Ġoutcome": 2951,
      "Ġrelated": 2952,
      "Ġmonth": 2953,
      "Ġcarried": 2954,
      "Ġallows": 2955,
      "IN": 2956,
      "MO": 2957,
      "bered": 2958,
      "ford": 2959,
      "Ġtable": 2960,
      "Ġcompar": 2961,
      "Ġproperty": 2962,
      "Ġprinciple": 2963,
      "Ġshift": 2964,
      "Ġmillion": 2965,
      "CH": 2966,
      "Ġbur": 2967,
      "roph": 2968,
      "Ġstat": 2969,
      "ĠMal": 2970,
      "Ġacet": 2971,
      "Ġinclude": 2972,
      "Ġbuilding": 2973,
      "Ġlanguage": 2974,
      "Ġbase": 2975,
      "ĠTra": 2976,
      "state": 2977,
      "rap": 2978,
      "Ġhence": 2979,
      "Ġrace": 2980,
      "Ġclasses": 2981,
      "Ġexperi": 2982,
      "Ġbenefits": 2983,
      "Ġadvant": 2984,
      "ĠGaussian": 2985,
      "ĠBayes": 2986,
      "Ã¶": 2987,
      "Ġelement": 2988,
      "Ġauthor": 2989,
      "Ġelasticity": 2990,
      "Ġenc": 2991,
      "Ġuses": 2992,
      "ogn": 2993,
      "ĠAlk": 2994,
      "Ġă": 2995,
      "Ġproportion": 2996,
      "75": 2997,
      "Ġbenz": 2998,
      "Ġwhole": 2999,
      "ode": 3000,
      "ĠÏĪ": 3001,
      "Ġclassiï¬ģcation": 3002,
      "Ġstudies": 3003,
      "Ġattempt": 3004,
      "co": 3005,
      "Ġstable": 3006,
      "ĠGo": 3007,
      "class": 3008,
      "Ġreport": 3009,
      "Ġestimates": 3010,
      "Ġdetermined": 3011,
      "Ġrespectively": 3012,
      "ĠExercises": 3013,
      "minist": 3014,
      "Ġbeginning": 3015,
      "ĠFirst": 3016,
      "Ġsequence": 3017,
      "In": 3018,
      "Ġoil": 3019,
      "Ġmo": 3020,
      "ime": 3021,
      "ĠGe": 3022,
      "Ġchosen": 3023,
      "Ġ69": 3024,
      "Ġresear": 3025,
      "ĠËľ": 3026,
      "vised": 3027,
      "Ġphen": 3028,
      "let": 3029,
      "ĠâĢ¢âĢ¢": 3030,
      "ected": 3031,
      "Ġplane": 3032,
      "ishing": 3033,
      "Ġopport": 3034,
      "AP": 3035,
      "ey": 3036,
      "gl": 3037,
      "Ġtree": 3038,
      "Ġold": 3039,
      "Ġput": 3040,
      "Ġpast": 3041,
      "Ġbox": 3042,
      "Ġlo": 3043,
      "igur": 3044,
      "Ġkind": 3045,
      "Ġcompute": 3046,
      "Ġelimin": 3047,
      "Ġextre": 3048,
      "Ġidea": 3049,
      "oid": 3050,
      "Ġln": 3051,
      "ription": 3052,
      "Ġenanti": 3053,
      "osting": 3054,
      "stituted": 3055,
      "Ġbasic": 3056,
      "Ġacids": 3057,
      "Ġvalley": 3058,
      "Ġsuggests": 3059,
      "Ġdue": 3060,
      "ĠEst": 3061,
      "ĠHet": 3062,
      "ï¬ģn": 3063,
      "oxide": 3064,
      "ondon": 3065,
      "Ġmarkets": 3066,
      "ohex": 3067,
      "enium": 3068,
      "Ġla": 3069,
      "amics": 3070,
      "ĠRom": 3071,
      "iving": 3072,
      "Ġ56": 3073,
      "Ġdiscr": 3074,
      "Ġprediction": 3075,
      "Ġcolumn": 3076,
      "Ġcombination": 3077,
      "ret": 3078,
      "iter": 3079,
      "Ġlasso": 3080,
      "Ġconcent": 3081,
      "verse": 3082,
      "aking": 3083,
      "Ġservice": 3084,
      "Ġeigenvalues": 3085,
      "Ġresearcher": 3086,
      "Ġbias": 3087,
      "Ġtoget": 3088,
      "ĠSome": 3089,
      "ulations": 3090,
      "Ġ68": 3091,
      "Ġdifference": 3092,
      "Ġimportance": 3093,
      "Ġdynasty": 3094,
      "Ġcoeï¬ĥcients": 3095,
      "Ġbehav": 3096,
      "Ġtogether": 3097,
      "where": 3098,
      "Ġtry": 3099,
      "Ġdone": 3100,
      "Ġstabil": 3101,
      "ĠEach": 3102,
      "Ġrise": 3103,
      "Ġleg": 3104,
      "Ġheter": 3105,
      "Ġesters": 3106,
      "Ġmaking": 3107,
      "Ġir": 3108,
      "Ġbrom": 3109,
      "ĠSc": 3110,
      "Ġexamples": 3111,
      "ennium": 3112,
      "Ġtheorem": 3113,
      "Ġdri": 3114,
      "etra": 3115,
      "Ġdiastere": 3116,
      "ĠRegression": 3117,
      "Ġtreatment": 3118,
      "Ġopen": 3119,
      "Ġinterpret": 3120,
      "Ġsometimes": 3121,
      "ani": 3122,
      "Ġinstitution": 3123,
      "Ġmention": 3124,
      "Ġharm": 3125,
      "ĠIm": 3126,
      "Ġimpl": 3127,
      "ĠJournal": 3128,
      "Ġdegree": 3129,
      "ĠEconomic": 3130,
      "Ġappropriate": 3131,
      "vironment": 3132,
      "ratic": 3133,
      "Ġess": 3134,
      "ĠâĪĨ": 3135,
      "Ġregard": 3136,
      "Ġobserved": 3137,
      "Ġleads": 3138,
      "Ġpossibilities": 3139,
      "imate": 3140,
      "ĠDi": 3141,
      "Ġoooo": 3142,
      "ĠKh": 3143,
      "Ġapplied": 3144,
      "Ġsimpl": 3145,
      "Ġworking": 3146,
      "ĠAlthough": 3147,
      "Al": 3148,
      "like": 3149,
      "rum": 3150,
      "ishes": 3151,
      "estern": 3152,
      "Ġanalog": 3153,
      "Ġlines": 3154,
      "olds": 3155,
      "Ġweak": 3156,
      "Ġperhaps": 3157,
      "ĠâĦĵ": 3158,
      "Ġemission": 3159,
      "Ġdeveloped": 3160,
      "Ġcollect": 3161,
      "Ġrelatively": 3162,
      "Ġalternative": 3163,
      "uture": 3164,
      "Ġaccess": 3165,
      "Ġbelong": 3166,
      "Ġappears": 3167,
      "ĠChristian": 3168,
      "Ġkinetic": 3169,
      "ya": 3170,
      "yal": 3171,
      "Ġep": 3172,
      "Ġ67": 3173,
      "Ġrearrangement": 3174,
      "Ġpenal": 3175,
      "aster": 3176,
      "Ġring": 3177,
      "ached": 3178,
      "ĠYork": 3179,
      "ĠCont": 3180,
      "Ġderivative": 3181,
      "Ġvibrational": 3182,
      "Ġtrees": 3183,
      "Ġfield": 3184,
      "ĠLear": 3185,
      "Ġleaving": 3186,
      "Ġproducing": 3187,
      "fficients": 3188,
      "Ġefficient": 3189,
      "Ġgold": 3190,
      "ĠâĪ§": 3191,
      "ta": 3192,
      "Ġaromatic": 3193,
      "Ġfail": 3194,
      "ands": 3195,
      "Ġproduces": 3196,
      "Ġdispl": 3197,
      "Ġestimated": 3198,
      "Ġreagent": 3199,
      "SA": 3200,
      "Ġwide": 3201,
      "Ġforce": 3202,
      "Ġrates": 3203,
      "Ġthemselves": 3204,
      "Ġdomin": 3205,
      "TION": 3206,
      "Ġcorrect": 3207,
      "ded": 3208,
      "Ġreign": 3209,
      "Ġhun": 3210,
      "Ġreson": 3211,
      "Ġequals": 3212,
      "Ġregular": 3213,
      "ously": 3214,
      "Ġcentral": 3215,
      "Ġidentical": 3216,
      "Ġstarting": 3217,
      "Ġsituation": 3218,
      "ging": 3219,
      "Ġcame": 3220,
      "Ġanaly": 3221,
      "ental": 3222,
      "Ġled": 3223,
      "ĠSou": 3224,
      "ĠRep": 3225,
      "Ġinterval": 3226,
      "âŁ©,": 3227,
      "Ġpeoples": 3228,
      "Ġderivatives": 3229,
      "Ġdescribe": 3230,
      "Ġpresence": 3231,
      "Ġvolume": 3232,
      "Ġconclus": 3233,
      "antu": 3234,
      "Ġrat": 3235,
      "oses": 3236,
      "plus": 3237,
      "ĠSuch": 3238,
      "Ġconstra": 3239,
      "Ġrequires": 3240,
      "ydride": 3241,
      "yi": 3242,
      "Ġosc": 3243,
      "ories": 3244,
      "ĠâĪĹ": 3245,
      "ĠIntern": 3246,
      "acy": 3247,
      "Ġobject": 3248,
      "Ġrepresentation": 3249,
      "Ġsolutions": 3250,
      "Ġoffic": 3251,
      "pi": 3252,
      "Ġbus": 3253,
      "Ġprimary": 3254,
      ")]": 3255,
      "ij": 3256,
      "line": 3257,
      "port": 3258,
      "olute": 3259,
      "ĠWest": 3260,
      "Ġnorthern": 3261,
      "aturated": 3262,
      "Ġhead": 3263,
      "Ġdiag": 3264,
      "Ġparts": 3265,
      "Ġroyal": 3266,
      "Ġcommunity": 3267,
      "Ġprovided": 3268,
      "Ġlonger": 3269,
      "Ġsubstrate": 3270,
      "ĠExercise": 3271,
      "ĠProblems": 3272,
      "Ġoscill": 3273,
      "carb": 3274,
      "Ġtar": 3275,
      "Ġwar": 3276,
      "Ġgas": 3277,
      "Ġalthough": 3278,
      "Ġï¬ģtt": 3279,
      "Ġquantities": 3280,
      "ĠLearning": 3281,
      "Ġcause": 3282,
      "Ġvis": 3283,
      "Ġchild": 3284,
      "ĠKush": 3285,
      "overed": 3286,
      "Ġderived": 3287,
      "Ġproperties": 3288,
      "Ġexactly": 3289,
      "iness": 3290,
      "Ġfuture": 3291,
      "oted": 3292,
      "ĠPre": 3293,
      "ĠBu": 3294,
      "izon": 3295,
      "Ġnumer": 3296,
      "ĠAmeric": 3297,
      "Ġintroduced": 3298,
      "ĠMethods": 3299,
      "ĠGreek": 3300,
      "SE": 3301,
      "Ġstruct": 3302,
      "Ġdeal": 3303,
      "Ġadminist": 3304,
      "Ġcontribution": 3305,
      "âŁ©|": 3306,
      "Ġclassiï¬ģ": 3307,
      "cycl": 3308,
      "Ġpairs": 3309,
      "Ġestablished": 3310,
      "âĢł": 3311,
      "Ġonce": 3312,
      "Ġresulting": 3313,
      "obal": 3314,
      "Ġprograms": 3315,
      "Ġoxidation": 3316,
      "AB": 3317,
      "Ġtre": 3318,
      "Ġing": 3319,
      "Ġstra": 3320,
      "rad": 3321,
      "Ġresid": 3322,
      "Ġintern": 3323,
      "Ġsigniï¬ģc": 3324,
      "Ġcarry": 3325,
      "Ġdeï¬ģn": 3326,
      "Ġeduc": 3327,
      "Ġmotion": 3328,
      "Ġadvantage": 3329,
      "ool": 3330,
      "rary": 3331,
      "ĠDisc": 3332,
      "ĠUsing": 3333,
      "ĠAfter": 3334,
      "Ġneeded": 3335,
      "vention": 3336,
      "Ġketone": 3337,
      "Ġclearly": 3338,
      "ottom": 3339,
      "wo": 3340,
      "Ħ¦": 3341,
      "Ġtend": 3342,
      "Ġsplit": 3343,
      "Ġenvironment": 3344,
      "Ġqual": 3345,
      "Ġparticles": 3346,
      "Ġextent": 3347,
      "Ġcriter": 3348,
      "gress": 3349,
      "lig": 3350,
      "ms": 3351,
      "Ġproton": 3352,
      "rie": 3353,
      "Ġord": 3354,
      "ibility": 3355,
      "ĠUse": 3356,
      "Ġerr": 3357,
      "Ġcommun": 3358,
      "Ġinstead": 3359,
      "atistics": 3360,
      "Ġnecessary": 3361,
      "Ġextreme": 3362,
      "ler": 3363,
      "linear": 3364,
      "run": 3365,
      "turb": 3366,
      "Ġmicro": 3367,
      "Ġdiv": 3368,
      "ĠTrans": 3369,
      "Ġyi": 3370,
      "Ġobjects": 3371,
      "Ġpriv": 3372,
      "Ġreflect": 3373,
      "Ġhypothesis": 3374,
      "nomial": 3375,
      "ÏĦ": 3376,
      "alle": 3377,
      "ĠPo": 3378,
      "ĠPart": 3379,
      "ĠLDA": 3380,
      "ĠInde": 3381,
      "Ġways": 3382,
      "Ġgrad": 3383,
      "Ġchoose": 3384,
      "Ġconsumer": 3385,
      "Ġwrite": 3386,
      "ĠNotice": 3387,
      "ania": 3388,
      "rier": 3389,
      "Ġrid": 3390,
      "Ġcenter": 3391,
      "Ġexpectation": 3392,
      "Ġforest": 3393,
      "Ġsquare": 3394,
      "Ġincluding": 3395,
      "ĠCompounds": 3396,
      "ĠCarbon": 3397,
      "Ġinfluence": 3398,
      "ilitary": 3399,
      "Ġopportunity": 3400,
      "but": 3401,
      "ymmet": 3402,
      "enic": 3403,
      "agas": 3404,
      "âĢ²(": 3405,
      "Ġmetal": 3406,
      "Ġboundary": 3407,
      "Ġachieve": 3408,
      "Ġhorizon": 3409,
      "Ġpollution": 3410,
      "side": 3411,
      "yond": 3412,
      "Ġsite": 3413,
      "orn": 3414,
      "ulated": 3415,
      "ĠHist": 3416,
      "Ġworks": 3417,
      "Ġsolid": 3418,
      "Ġdeveloping": 3419,
      "Ġactivity": 3420,
      "Ġhighly": 3421,
      "ification": 3422,
      "Ġconsumers": 3423,
      "Ġconcer": 3424,
      "ĠMeroe": 3425,
      "MS": 3426,
      "rink": 3427,
      "order": 3428,
      "Ġfive": 3429,
      "Ġtook": 3430,
      "ĠSm": 3431,
      "Ġrespond": 3432,
      "ĠSynthesis": 3433,
      "riptions": 3434,
      "inary": 3435,
      "Ġsulf": 3436,
      "omers": 3437,
      "............": 3438,
      "Ġdistin": 3439,
      "Ġrecogn": 3440,
      "Ġessential": 3441,
      "Ġresonance": 3442,
      "Ġmy": 3443,
      "ĠMa": 3444,
      "ĠNote": 3445,
      "ĠLinear": 3446,
      "Ġscatter": 3447,
      "Ġconstruct": 3448,
      "Ġreligious": 3449,
      "ĠDemand": 3450,
      "Ġlies": 3451,
      "ots": 3452,
      "ubl": 3453,
      "Ġgenerated": 3454,
      "Ġsociety": 3455,
      "80": 3456,
      "Ġsources": 3457,
      "asing": 3458,
      "abor": 3459,
      "Ġvi": 3460,
      "Ġcenturies": 3461,
      "Ġfamily": 3462,
      "Ġexchange": 3463,
      ")|": 3464,
      "Ġtell": 3465,
      "ĠPt": 3466,
      "ĠOf": 3467,
      "abit": 3468,
      "Ġkings": 3469,
      "Ġplate": 3470,
      "Ġpartition": 3471,
      "Ġmodern": 3472,
      "Ġrow": 3473,
      "ĠSahara": 3474,
      "Ġsignificant": 3475,
      "Ġbehavior": 3476,
      "Ġrev": 3477,
      "Ġdiss": 3478,
      "Ġart": 3479,
      "Ġprevious": 3480,
      "Ġrepres": 3481,
      "Ġelimination": 3482,
      "Ġimprove": 3483,
      "Ġhouseh": 3484,
      "Ġimplies": 3485,
      "Ġair": 3486,
      "itude": 3487,
      "Ġhour": 3488,
      "Ġhard": 3489,
      "quared": 3490,
      "ĠInter": 3491,
      "Ġaryl": 3492,
      "ĠAnalysis": 3493,
      "Ġgenerate": 3494,
      "Ġcarbenium": 3495,
      "Ġrepresented": 3496,
      "Ġdonors": 3497,
      "Ġbuy": 3498,
      "Ġkingdom": 3499,
      "âĢ¢âĢ¢âĢ¢âĢ¢âĢ¢âĢ¢âĢ¢âĢ¢âĢ¢âĢ¢âĢ¢âĢ¢âĢ¢âĢ¢âĢ¢âĢ¢": 3500,
      "ĠSudan": 3501,
      "99": 3502,
      "Ġtherm": 3503,
      "rew": 3504,
      "ison": 3505,
      "Ġinform": 3506,
      "Ġtowards": 3507,
      "otal": 3508,
      "ĠOF": 3509,
      "Ġ35": 3510,
      "ĠNH": 3511,
      "Ġyl": 3512,
      "Ġperturb": 3513,
      "ĠAnd": 3514,
      "Ġtransl": 3515,
      "Ġeconomics": 3516,
      "Ġconfigur": 3517,
      "Ġcorrelation": 3518,
      "Ġempire": 3519,
      "Ġ.................": 3520,
      "Ġcr": 3521,
      "Ġinh": 3522,
      "ĠTe": 3523,
      "ĠDes": 3524,
      "Ġens": 3525,
      "Ġund": 3526,
      "ocus": 3527,
      "ront": 3528,
      "ĠTherefore": 3529,
      "Ġetc": 3530,
      "Ġwages": 3531,
      "Ġhy": 3532,
      "ithic": 3533,
      "ĠMult": 3534,
      "ĠFind": 3535,
      "Ġphot": 3536,
      "ĠClass": 3537,
      "Ġfourth": 3538,
      "Ġpurch": 3539,
      "position": 3540,
      "Ġalcohol": 3541,
      "Ġhorizontal": 3542,
      "know": 3543,
      "Ġtrib": 3544,
      "het": 3545,
      "Ġsaid": 3546,
      "ĠCent": 3547,
      "ĠEd": 3548,
      "ĠFr": 3549,
      "odes": 3550,
      "osph": 3551,
      "Ġyield": 3552,
      "Ġphase": 3553,
      "Ġabsolute": 3554,
      "Ġrepresents": 3555,
      "/Â¯": 3556,
      "67": 3557,
      "Ġaway": 3558,
      "ened": 3559,
      "Ġcomparis": 3560,
      "Ġparticip": 3561,
      "Ġsets": 3562,
      "Ġmolecular": 3563,
      "Ġprovides": 3564,
      "Ġamplitudes": 3565,
      "Ġsatisf": 3566,
      "Section": 3567,
      "ked": 3568,
      "Ġfav": 3569,
      "ĠRedu": 3570,
      "Ġapply": 3571,
      "Ġprobabilities": 3572,
      "Br": 3573,
      "bo": 3574,
      "ha": 3575,
      "Ġbr": 3576,
      "Ġnames": 3577,
      "amic": 3578,
      "ĠMat": 3579,
      "Ġ80": 3580,
      "Ġimpact": 3581,
      "Ġlargest": 3582,
      "Ġnucleophile": 3583,
      "SS": 3584,
      "Ġions": 3585,
      "enyl": 3586,
      "aran": 3587,
      "Ġproceed": 3588,
      "ĠHint": 3589,
      "elf": 3590,
      "cience": 3591,
      "Ġinvolved": 3592,
      "ĠChemistry": 3593,
      "Ġformula": 3594,
      "ew": 3595,
      "Ġcut": 3596,
      "Ġfac": 3597,
      "Ġfamil": 3598,
      "Ġbook": 3599,
      "Ġtools": 3600,
      "iger": 3601,
      "pped": 3602,
      "Ġkernel": 3603,
      "ĠGener": 3604,
      "perature": 3605,
      "Ġclos": 3606,
      "Ġsupplied": 3607,
      "Ġkeep": 3608,
      "Ġcust": 3609,
      "Ġnit": 3610,
      "Ġlie": 3611,
      "ĠBantu": 3612,
      "Ġselection": 3613,
      "paration": 3614,
      "Ġmeasurement": 3615,
      "ĠMeroitic": 3616,
      "Ġmer": 3617,
      "ĠOR": 3618,
      "ureau": 3619,
      "Ġcultural": 3620,
      "idden": 3621,
      "Ġreagents": 3622,
      "ymmetric": 3623,
      "Ġtown": 3624,
      "ĠAnt": 3625,
      "udget": 3626,
      "ubstituted": 3627,
      "Ġrap": 3628,
      "ĠWhy": 3629,
      "Ġparticularly": 3630,
      "Ġadditive": 3631,
      "Ġargument": 3632,
      "Ġdirectly": 3633,
      "gal": 3634,
      "mer": 3635,
      "yr": 3636,
      "Ġcall": 3637,
      "Ġfocus": 3638,
      "Ġbeyond": 3639,
      "ĠBo": 3640,
      "aper": 3641,
      "Ġhealth": 3642,
      "ternal": 3643,
      "ĠSee": 3644,
      "Ġexistence": 3645,
      "Ġmembers": 3646,
      "63": 3647,
      "Ġdt": 3648,
      "Ġlate": 3649,
      "Ġconn": 3650,
      "Ġyet": 3651,
      "Ġupper": 3652,
      "Ġassistance": 3653,
      "Ġapproaches": 3654,
      "Ġlowest": 3655,
      "****************": 3656,
      "Ġperfectly": 3657,
      "Ġconcl": 3658,
      "ads": 3659,
      "ĠStud": 3660,
      "Ġ2000": 3661,
      "Ġversion": 3662,
      "Ġtaxes": 3663,
      "Ġmillennium": 3664,
      "Ġerrors": 3665,
      "CA": 3666,
      "Ġpress": 3667,
      "Ġpounds": 3668,
      "Ġfr": 3669,
      "ĠGr": 3670,
      "Ġevent": 3671,
      "ydes": 3672,
      "Ġsettle": 3673,
      "Ġthroughout": 3674,
      "Ġadded": 3675,
      "ICA": 3676,
      "Ġcoupling": 3677,
      "ĠTHE": 3678,
      "Ġinstitutions": 3679,
      "MP": 3680,
      "iable": 3681,
      "inations": 3682,
      "isions": 3683,
      "Ġface": 3684,
      "Ġmilitary": 3685,
      "Ġthings": 3686,
      "ria": 3687,
      "aph": 3688,
      "Ġ2005": 3689,
      "Ġlabel": 3690,
      "Ġvertical": 3691,
      "wor": 3692,
      "Ġlink": 3693,
      "Ġformer": 3694,
      "Ġwords": 3695,
      "Ġeigenfunction": 3696,
      "Ġtemperature": 3697,
      "Ġexcited": 3698,
      "Ġratio": 3699,
      "point": 3700,
      "atory": 3701,
      "Ġwest": 3702,
      "Ġcond": 3703,
      "Ġris": 3704,
      "Ġ45": 3705,
      "ĠGiven": 3706,
      "Ġelectroph": 3707,
      "Ġgradu": 3708,
      "Ġindicated": 3709,
      "Ġcataly": 3710,
      "Ġpolynomial": 3711,
      "Ġarchaeological": 3712,
      "'.": 3713,
      "ĠÇ«": 3714,
      "ino": 3715,
      "semb": 3716,
      "Ġgain": 3717,
      "ury": 3718,
      "osite": 3719,
      "Ġupon": 3720,
      "Ġseek": 3721,
      "Ġeasy": 3722,
      "Ġglobal": 3723,
      "bs": 3724,
      "Ġsource": 3725,
      "Ġann": 3726,
      "Ġanswer": 3727,
      "Ġacyl": 3728,
      "Ġagree": 3729,
      "Ġreduces": 3730,
      "Ġtechniques": 3731,
      "Ġenolates": 3732,
      "allel": 3733,
      "Ġrapid": 3734,
      "ĠAlex": 3735,
      "ump": 3736,
      "ĠEven": 3737,
      "Ġexceed": 3738,
      "ĠAsk": 3739,
      "Ġstudents": 3740,
      ")+": 3741,
      "Ăā": 3742,
      "Ġtang": 3743,
      "ĠMin": 3744,
      "Ġ32": 3745,
      "Ġdecl": 3746,
      "ĠNorth": 3747,
      "ĠAnother": 3748,
      "ruction": 3749,
      "ucleoph": 3750,
      "Ġcontinuous": 3751,
      "Ac": 3752,
      "oi": 3753,
      "Ġtit": 3754,
      "erl": 3755,
      "Ġcit": 3756,
      "alized": 3757,
      "Ġtoday": 3758,
      "etal": 3759,
      "ĠIN": 3760,
      "âĪĤ": 3761,
      "Ġplan": 3762,
      "Ġundergo": 3763,
      "Ġoperations": 3764,
      "Ġtaking": 3765,
      "Ġincluded": 3766,
      "Ġemissions": 3767,
      "Ġgradient": 3768,
      "69": 3769,
      "OR": 3770,
      "cat": 3771,
      "ken": 3772,
      "ĠCo": 3773,
      "ulate": 3774,
      "Ġconï¬ģ": 3775,
      "Ġcopper": 3776,
      "Ġsuppose": 3777,
      "venth": 3778,
      "Ġfalls": 3779,
      "oadditions": 3780,
      "cf": 3781,
      "cal": 3782,
      "Ġpie": 3783,
      "Ġinf": 3784,
      "Ġfixed": 3785,
      "ĠAct": 3786,
      "ĠCol": 3787,
      "ĠMD": 3788,
      "ĠNum": 3789,
      "acks": 3790,
      "Ġinterse": 3791,
      "value": 3792,
      "Ġprior": 3793,
      "Ġaldehyde": 3794,
      "01": 3795,
      "Li": 3796,
      "ek": 3797,
      "sk": 3798,
      "||": 3799,
      "Ġfund": 3800,
      "Ġdoc": 3801,
      "raft": 3802,
      "ĠÏģ": 3803,
      "Ġallowed": 3804,
      "Ġ1970": 3805,
      "Ġliter": 3806,
      "ĠSubstitution": 3807,
      "ĠKingdom": 3808,
      "Ġbre": 3809,
      "Ġisol": 3810,
      "Ġnational": 3811,
      "Ġmethyl": 3812,
      "Ġtypes": 3813,
      "Ġcivilization": 3814,
      "Ġofficial": 3815,
      "Ġtarget": 3816,
      "ĠPtole": 3817,
      "ĠAlexand": 3818,
      "itable": 3819,
      "Ġfif": 3820,
      "icit": 3821,
      "Ġdest": 3822,
      "olithic": 3823,
      "Ġones": 3824,
      "tert": 3825,
      "ĠData": 3826,
      "Ġinteractions": 3827,
      "ĠYou": 3828,
      "ĠComput": 3829,
      "Ġorthog": 3830,
      "aim": 3831,
      "ground": 3832,
      "with": 3833,
      "Ġgod": 3834,
      "ĠOther": 3835,
      "ĠFried": 3836,
      "Ġrul": 3837,
      "rices": 3838,
      "hemat": 3839,
      "Ġfollowed": 3840,
      "Ġradial": 3841,
      "Ġexperiments": 3842,
      "Ġeigenvalue": 3843,
      "Ġpattern": 3844,
      "Ġsubstituent": 3845,
      "ĠCarthage": 3846,
      "Ġmoving": 3847,
      "works": 3848,
      "itt": 3849,
      "Ġpy": 3850,
      "Ġmiss": 3851,
      "ometh": 3852,
      "rice": 3853,
      "Ġexpon": 3854,
      "Ġtransformation": 3855,
      "Ġobservation": 3856,
      "Ġketones": 3857,
      "Ġfrequency": 3858,
      "Ġalcohols": 3859,
      "Ġamplitude": 3860,
      "etrahed": 3861,
      "Ġinternational": 3862,
      "70": 3863,
      "Ex": 3864,
      "ling": 3865,
      "Ġmis": 3866,
      "ray": 3867,
      "Ġactually": 3868,
      "ĠWhile": 3869,
      "Ġbuilt": 3870,
      "Ġbusiness": 3871,
      "Ġbudget": 3872,
      "ĠCost": 3873,
      "ĠDep": 3874,
      "ĠÎ³": 3875,
      "Ġquad": 3876,
      "Ġconte": 3877,
      "Ġ2001": 3878,
      "Ġbelie": 3879,
      "Ġexpressed": 3880,
      "Ġscattering": 3881,
      "car": 3882,
      "ired": 3883,
      "pose": 3884,
      "saturated": 3885,
      "vals": 3886,
      "Ġfigure": 3887,
      "ĠPol": 3888,
      "ĠRad": 3889,
      "ĠHer": 3890,
      "Ġpartial": 3891,
      "Ġarbit": 3892,
      "198": 3893,
      "Ġparallel": 3894,
      "Ġspecific": 3895,
      "Ġeasily": 3896,
      "Ġpractice": 3897,
      "Ġ&": 3898,
      "Ġsav": 3899,
      "Ġdivid": 3900,
      "ĠNet": 3901,
      "Ġyields": 3902,
      "Ġexpand": 3903,
      "Ġsymb": 3904,
      "Ġpossess": 3905,
      "Ġreasons": 3906,
      "Ġiniti": 3907,
      "Ġrestrict": 3908,
      "Ġneighb": 3909,
      "Ġsampling": 3910,
      "Ġeducation": 3911,
      "hest": 3912,
      "oul": 3913,
      "ĠCat": 3914,
      "Ġconsequ": 3915,
      "ĠNash": 3916,
      "osing": 3917,
      "estic": 3918,
      "Ġspread": 3919,
      "Ġcontact": 3920,
      "Ġ2006": 3921,
      "ohn": 3922,
      "Ġconsumption": 3923,
      "ĠOrg": 3924,
      "Ġthought": 3925,
      "Ġfrag": 3926,
      "eenth": 3927,
      "Ì¸": 3928,
      "Ġsaw": 3929,
      "Ġdate": 3930,
      "ĠOMe": 3931,
      "illed": 3932,
      "Ġproposition": 3933,
      "Ġperformance": 3934,
      "Ġwriting": 3935,
      "Ġmentioned": 3936,
      "Ġsigniï¬ģcant": 3937,
      "hydro": 3938,
      "Ġ}": 3939,
      "Ġbottom": 3940,
      "ĠIII": 3941,
      "Ġstage": 3942,
      "ĠNu": 3943,
      "ĠÎµ": 3944,
      "Ġvectors": 3945,
      "Ġdeï¬ģne": 3946,
      "Ġdrawn": 3947,
      "Ġinputs": 3948,
      "ĠModel": 3949,
      "Ġsummary": 3950,
      "ĠOxford": 3951,
      "Ġenantiomer": 3952,
      "Ġmiddle": 3953,
      "ĠSO": 3954,
      "otst": 3955,
      "Ġexternal": 3956,
      "ured": 3957,
      "Ġsem": 3958,
      "ership": 3959,
      "Ġdip": 3960,
      "Ġrepe": 3961,
      "Ġ2008": 3962,
      "rought": 3963,
      "Ġ1991": 3964,
      "Ġneeds": 3965,
      "Ġindividuals": 3966,
      "jection": 3967,
      "mon": 3968,
      "use": 3969,
      "Ġï¬Ĥ": 3970,
      "Ġmixed": 3971,
      "Ġtoward": 3972,
      "ĠMad": 3973,
      "ĠNo": 3974,
      "Ġrises": 3975,
      "ciï¬ģ": 3976,
      "Ġdecom": 3977,
      "Ġexplo": 3978,
      "III": 3979,
      "Ġprofits": 3980,
      "Ġexcav": 3981,
      "Ġcompletely": 3982,
      "Ġuncertain": 3983,
      "05": 3984,
      "ID": 3985,
      "yan": 3986,
      "Â±": 3987,
      "ery": 3988,
      "Ġconj": 3989,
      "Ġwealth": 3990,
      "Ġvary": 3991,
      "Ġquality": 3992,
      "cip": 3993,
      "Ġsolve": 3994,
      "ociation": 3995,
      "Ġtechnology": 3996,
      "iar": 3997,
      "hel": 3998,
      "Ġfinal": 3999,
      "Ġmig": 4000,
      "asis": 4001,
      "ĠIR": 4002,
      "ĠPd": 4003,
      "odyn": 4004,
      "ĠÂ§": 4005,
      "Ġaccur": 4006,
      "Ġslow": 4007,
      "validation": 4008,
      "Ġcondens": 4009,
      "rÃ¶": 4010,
      "Ġeast": 4011,
      "olates": 4012,
      "aged": 4013,
      "Ġadop": 4014,
      "Ġcoff": 4015,
      "anean": 4016,
      "ercise": 4017,
      "Ġactivities": 4018,
      "mission": 4019,
      "roton": 4020,
      "Ġtomb": 4021,
      "Ġliving": 4022,
      "ams": 4023,
      "istics": 4024,
      "ĠÂ±": 4025,
      "Ġtransfer": 4026,
      "iminant": 4027,
      "Ġpositions": 4028,
      "Ġeastern": 4029,
      "Ġrotational": 4030,
      "Ġagricultural": 4031,
      "Ph": 4032,
      "ches": 4033,
      "dence": 4034,
      "hing": 4035,
      "onst": 4036,
      "Ġpage": 4037,
      "eterm": 4038,
      "ĠRec": 4039,
      "Ġ31": 4040,
      "Ġ34": 4041,
      "Ġjud": 4042,
      "Ġobvious": 4043,
      "âŁ©+": 4044,
      "Ġrob": 4045,
      "ossible": 4046,
      "Ġprecise": 4047,
      "iterr": 4048,
      "ĠInternational": 4049,
      "known": 4050,
      "78": 4051,
      "CO": 4052,
      "Â°": 4053,
      "Ġmach": 4054,
      "vey": 4055,
      "ĠCor": 4056,
      "Ġgave": 4057,
      "Ġeng": 4058,
      "dinger": 4059,
      "Ġ90": 4060,
      "ype": 4061,
      "Ġpeak": 4062,
      "Chaps": 4063,
      "Ġsquared": 4064,
      "Ġcertainly": 4065,
      "Ġanti": 4066,
      "Ġdetails": 4067,
      "Ġfraction": 4068,
      "Ġpercentage": 4069,
      "ĠRoman": 4070,
      "ĠSouth": 4071,
      "Ġprivate": 4072,
      "66": 4073,
      "IS": 4074,
      "hist": 4075,
      "ka": 4076,
      "lant": 4077,
      "rust": 4078,
      "Ġten": 4079,
      "Ġlist": 4080,
      "ully": 4081,
      "Ġdel": 4082,
      "Ġ1996": 4083,
      "Ġmeasured": 4084,
      "Ġpolicies": 4085,
      "Ġnucleophiles": 4086,
      "Ġillustrate": 4087,
      "Ġexponential": 4088,
      "otstrap": 4089,
      "En": 4090,
      "aract": 4091,
      "ĠAF": 4092,
      "uth": 4093,
      "Ġwhite": 4094,
      "apt": 4095,
      "allic": 4096,
      "Ġoverl": 4097,
      "Ġ2002": 4098,
      "ĠSecond": 4099,
      "Ġtypically": 4100,
      "Ġdetermin": 4101,
      "ĠResid": 4102,
      "Ġlanguages": 4103,
      "ĠSimilar": 4104,
      "levant": 4105,
      "ancial": 4106,
      "Ġmoves": 4107,
      "rÃ¶dinger": 4108,
      "Th": 4109,
      "gence": 4110,
      "ores": 4111,
      "Ġcities": 4112,
      "ĠTotal": 4113,
      "Ġforward": 4114,
      "Ġprogress": 4115,
      "Ġexists": 4116,
      "Ġnote": 4117,
      "Ġcomputed": 4118,
      "Ġplaus": 4119,
      "kets": 4120,
      "Ġmanner": 4121,
      "Ġeffort": 4122,
      "Ġmeasures": 4123,
      "Ġfinding": 4124,
      "ĠAskia": 4125,
      "NC": 4126,
      "ched": 4127,
      "inter": 4128,
      "itation": 4129,
      "Ġfront": 4130,
      "Ġdays": 4131,
      "Ġreferred": 4132,
      "Ġlack": 4133,
      "ĠRel": 4134,
      "Ġexclus": 4135,
      "Ġtravel": 4136,
      "oney": 4137,
      "roduction": 4138,
      "Ġintegrals": 4139,
      "Ġorganization": 4140,
      "Ġmeaning": 4141,
      "Ġachieved": 4142,
      "Ġaldehydes": 4143,
      "Ġproportional": 4144,
      "Ġperturbation": 4145,
      "79": 4146,
      "TE": 4147,
      "TER": 4148,
      "Ġaspect": 4149,
      "ĠEds": 4150,
      "ĠMor": 4151,
      "Ġapparent": 4152,
      "Ġotherwise": 4153,
      "ĠVari": 4154,
      "ought": 4155,
      "Ġdependence": 4156,
      "ĠSchrÃ¶dinger": 4157,
      "Ġbonding": 4158,
      "Ġestablish": 4159,
      "ĠEthiopia": 4160,
      "ky": 4161,
      "xed": 4162,
      "Ġcate": 4163,
      "step": 4164,
      "Ġrich": 4165,
      "Ġadjust": 4166,
      "anging": 4167,
      "Ġeconomies": 4168,
      "Ġeconomists": 4169,
      "ĠExample": 4170,
      "Ġvalence": 4171,
      "Ġcomputer": 4172,
      "Ġabsor": 4173,
      "Ġmultiple": 4174,
      "Ĺ¦": 4175,
      "Ġissu": 4176,
      "irt": 4177,
      "Ġ1990": 4178,
      "Ġï£´": 4179,
      "Ġpredictor": 4180,
      "Ġpropag": 4181,
      "Ġleading": 4182,
      "Ġcoeï¬ĥcient": 4183,
      "Ġbroad": 4184,
      "Ġsmoothing": 4185,
      "ĠBlack": 4186,
      "ĠPharaoh": 4187,
      "isen": 4188,
      "Ġinï¬ģn": 4189,
      "ĠTwo": 4190,
      "Ġreve": 4191,
      "ĠAB": 4192,
      "Ġelectric": 4193,
      "Ġdiscovered": 4194,
      "Ġaccom": 4195,
      "Ġweights": 4196,
      "Ġinvestig": 4197,
      "Ġhistorical": 4198,
      "ĠFinally": 4199,
      "Ġcriterion": 4200,
      "/(": 4201,
      "lies": 4202,
      "mat": 4203,
      "Ã¨": 4204,
      "Ġ).": 4205,
      "oura": 4206,
      "Ġlay": 4207,
      "rac": 4208,
      "ĠStere": 4209,
      "Ġremov": 4210,
      "Ġmomenta": 4211,
      "Ġconverted": 4212,
      "Ġoptimal": 4213,
      "ĠPRO": 4214,
      "Ġinscriptions": 4215,
      "Ġanalogous": 4216,
      "Ġcoffee": 4217,
      "\".": 4218,
      "iple": 4219,
      "Ġapart": 4220,
      "Ġsw": 4221,
      "Ġpound": 4222,
      "Ġisomer": 4223,
      "ĠPe": 4224,
      "ĠRed": 4225,
      "ĠNucleoph": 4226,
      "ades": 4227,
      "ĠWhe": 4228,
      "Ġunique": 4229,
      "pervised": 4230,
      "Ġspending": 4231,
      "Ġheight": 4232,
      "Ġwhereas": 4233,
      "Ġmatter": 4234,
      "Ġslight": 4235,
      "ĠConsequently": 4236,
      "Ġindicate": 4237,
      "Ġdomestic": 4238,
      "Ġsubstant": 4239,
      "Ġrotation": 4240,
      "Ġreligion": 4241,
      "Ġtangent": 4242,
      "\",": 4243,
      "ATION": 4244,
      "Paris": 4245,
      "ont": 4246,
      "Ġoffer": 4247,
      "anced": 4248,
      "Ġbrought": 4249,
      "ĠTR": 4250,
      "Ġforces": 4251,
      "Ġstrict": 4252,
      "ĠMC": 4253,
      "rug": 4254,
      "Ġagencies": 4255,
      "Ġemer": 4256,
      "Ġatomic": 4257,
      "Ġtexts": 4258,
      "Ġcolon": 4259,
      "Ġcollection": 4260,
      "Ġdoubt": 4261,
      "Ġtemple": 4262,
      "Ġ.................................................................................................": 4263,
      "Ġharmonic": 4264,
      "Ġconstraint": 4265,
      "Ġclassiï¬ģer": 4266,
      "Ġqualitative": 4267,
      "Ġorthogonal": 4268,
      "cult": 4269,
      "Ġtur": 4270,
      "ctive": 4271,
      "ĠSa": 4272,
      "ĠTheir": 4273,
      "Ġstock": 4274,
      "vert": 4275,
      "Ġperm": 4276,
      "Ġfunctional": 4277,
      "new": 4278,
      "Ġdemonst": 4279,
      "ĠUnder": 4280,
      "Ġcapt": 4281,
      "ĠArch": 4282,
      "Ġangle": 4283,
      "ĠMarginal": 4284,
      "Ġexamine": 4285,
      "Ġboosting": 4286,
      "Ġseparate": 4287,
      "Ġchemical": 4288,
      "Ġcauses": 4289,
      "Ġconfiguration": 4290,
      "Ġinhabit": 4291,
      "cop": 4292,
      "men": 4293,
      "ux": 4294,
      "enced": 4295,
      "Ġmen": 4296,
      "stat": 4297,
      "Ġconne": 4298,
      "rial": 4299,
      "ĠFe": 4300,
      "ĠDo": 4301,
      "ĠDav": 4302,
      "oxy": 4303,
      "Ġextra": 4304,
      "Ġoptim": 4305,
      "Ġmagnetic": 4306,
      "Ġsubstituents": 4307,
      "06": 4308,
      "rations": 4309,
      "Ġpict": 4310,
      "vere": 4311,
      "ĠPoint": 4312,
      "ĠOO": 4313,
      "lder": 4314,
      "aps": 4315,
      "Ġchall": 4316,
      "redit": 4317,
      "ĠJohn": 4318,
      "Ġimpossible": 4319,
      "ĠIts": 4320,
      "reng": 4321,
      "Ġemployed": 4322,
      "Ġclustering": 4323,
      "Ġdimensions": 4324,
      "Ġframe": 4325,
      "Ġmissing": 4326,
      "100": 4327,
      "electron": 4328,
      "za": 4329,
      "ening": 4330,
      "Ġstatistical": 4331,
      "ĠMich": 4332,
      "usion": 4333,
      "ĠFurther": 4334,
      "ĠBack": 4335,
      "Ġemph": 4336,
      "Ġentry": 4337,
      "Ġradius": 4338,
      "ĠNubian": 4339,
      "lands": 4340,
      "Ġstereoc": 4341,
      "ĠQuant": 4342,
      "Ġorientation": 4343,
      "Ġoscillator": 4344,
      "Ġcomparison": 4345,
      "ureauc": 4346,
      "ĠAFR": 4347,
      "EC": 4348,
      "iet": 4349,
      "zero": 4350,
      "Ġtions": 4351,
      "eration": 4352,
      "itor": 4353,
      "roll": 4354,
      "Ġnations": 4355,
      "Ġbegan": 4356,
      "Ġnearest": 4357,
      "Ġ78": 4358,
      "Ġoutside": 4359,
      "Ġvariety": 4360,
      "iels": 4361,
      "Ġrespons": 4362,
      "Ġblock": 4363,
      "Ġamounts": 4364,
      "Ġchemistry": 4365,
      "iterranean": 4366,
      "ke": 4367,
      "nd": 4368,
      "set": 4369,
      "Îµ": 4370,
      "Ġcand": 4371,
      "Ġdat": 4372,
      "Ġrent": 4373,
      "ĠCoe": 4374,
      "olar": 4375,
      "Ġdeb": 4376,
      "ighbor": 4377,
      "Ġregi": 4378,
      "Ġdistingu": 4379,
      "Ġpolar": 4380,
      "Ġinvolves": 4381,
      "Ġcontinued": 4382,
      "ridge": 4383,
      "Ġsamples": 4384,
      "Ġfunds": 4385,
      "ING": 4386,
      "Ġcomparative": 4387,
      "Ġchildren": 4388,
      "âĦ¦": 4389,
      "Ġwomen": 4390,
      "Ġfully": 4391,
      "Ġreview": 4392,
      "Ġreached": 4393,
      "Ġlikelihood": 4394,
      "sec": 4395,
      "Ġgen": 4396,
      "iding": 4397,
      "ĠEX": 4398,
      "Ġally": 4399,
      "ody": 4400,
      "duc": 4401,
      "ĠDon": 4402,
      "Ġnoted": 4403,
      "ferent": 4404,
      "Ġreducing": 4405,
      "Ġelse": 4406,
      "Ġexplicit": 4407,
      "Ġassumption": 4408,
      "Ġidentity": 4409,
      "Ġmaintain": 4410,
      "which": 4411,
      "Ġspectrum": 4412,
      "Ġcircum": 4413,
      "ĠBayesian": 4414,
      "Ġstructures": 4415,
      "=\"": 4416,
      "mem": 4417,
      "Ġsides": 4418,
      "Ġmoney": 4419,
      "ctang": 4420,
      "Ġthous": 4421,
      "ason": 4422,
      "Ġconqu": 4423,
      "ĠâĢ²": 4424,
      "Ġchief": 4425,
      "Ġneural": 4426,
      "Ġxy": 4427,
      "ĠUS": 4428,
      "Ġcov": 4429,
      "axis": 4430,
      "Ġemb": 4431,
      "ĠPho": 4432,
      "iquity": 4433,
      "Ġcontinent": 4434,
      "Ġdegener": 4435,
      "Ġcluster": 4436,
      "ĠAmerican": 4437,
      "Ġcontext": 4438,
      "BLE": 4439,
      "hib": 4440,
      "Ġreach": 4441,
      "ĠSum": 4442,
      "uting": 4443,
      "Ġsuc": 4444,
      "Ġinternal": 4445,
      "Ġcommand": 4446,
      "Ġactual": 4447,
      "Ġassumed": 4448,
      "Ġoccupied": 4449,
      "alkyl": 4450,
      "Ġvanish": 4451,
      "ĠMediterranean": 4452,
      "Ġexperience": 4453,
      "Ġpenalty": 4454,
      "ederal": 4455,
      "Ġ(âĪĴ": 4456,
      "Ġstation": 4457,
      "ĠMr": 4458,
      "iest": 4459,
      "that": 4460,
      "Ġalloc": 4461,
      "Ġimmedi": 4462,
      "Ġdoing": 4463,
      "Ġevents": 4464,
      "Ġprep": 4465,
      "iction": 4466,
      "Ġdiï¬Ģerence": 4467,
      "Ġrecord": 4468,
      "Ġreceive": 4469,
      "ĠOrganic": 4470,
      "ĠMoreover": 4471,
      "Ġreturns": 4472,
      "Ġphenomen": 4473,
      "Ġeigenfunctions": 4474,
      "Ġarbitrary": 4475,
      "Ġine": 4476,
      "Ġinequ": 4477,
      "Ġfast": 4478,
      "ĠTest": 4479,
      "Ġlithium": 4480,
      "utation": 4481,
      "ĠTheory": 4482,
      "ĠEm": 4483,
      "raw": 4484,
      "Ġcompared": 4485,
      "ortun": 4486,
      "agin": 4487,
      "aging": 4488,
      "ffect": 4489,
      "Ġarri": 4490,
      "ĠRev": 4491,
      "Ġoverall": 4492,
      "Ġcoefficients": 4493,
      "Ġsuggested": 4494,
      "Ġreceived": 4495,
      "Ġbarrier": 4496,
      "ufact": 4497,
      "agascar": 4498,
      "MF": 4499,
      "Os": 4500,
      "zant": 4501,
      "Ġcast": 4502,
      "Ġever": 4503,
      "ĠTheore": 4504,
      "changed": 4505,
      "Ġstreng": 4506,
      "Ġ43": 4507,
      "ignard": 4508,
      "Ġagent": 4509,
      "Ġcarboxyl": 4510,
      "Ġ1998": 4511,
      "Ġenter": 4512,
      "Ġeigenve": 4513,
      "Ġidentify": 4514,
      "Ġinstance": 4515,
      "Ġshifts": 4516,
      "Ġtraditional": 4517,
      "rafts": 4518,
      "Ġpack": 4519,
      "ional": 4520,
      "ĠCC": 4521,
      "ĠBoth": 4522,
      "Ġvill": 4523,
      "resh": 4524,
      "Ġnothing": 4525,
      "Ġplant": 4526,
      "Ġformal": 4527,
      "Ġsubg": 4528,
      "Ġrelation": 4529,
      "Ġinitially": 4530,
      "ĠEconomics": 4531,
      "Ġopposite": 4532,
      "Ġcontaining": 4533,
      "Ġremaining": 4534,
      "Ġriver": 4535,
      "ĠGovern": 4536,
      "Af": 4537,
      "IP": 4538,
      "mic": 4539,
      "ying": 4540,
      "Ġtun": 4541,
      "oral": 4542,
      "Ġste": 4543,
      "itions": 4544,
      "Ġnotation": 4545,
      "Ġperi": 4546,
      "ĠStatistical": 4547,
      "Ġsurv": 4548,
      "Ġconsiderable": 4549,
      "swers": 4550,
      "Ġfinancial": 4551,
      "Ġspline": 4552,
      "rinkage": 4553,
      "ĠPhoenic": 4554,
      "ma": 4555,
      "inces": 4556,
      "Ġscient": 4557,
      "Ġpubl": 4558,
      "Ġrectang": 4559,
      "imer": 4560,
      "urity": 4561,
      "ĠId": 4562,
      "Ġproject": 4563,
      "ĠNational": 4564,
      "ills": 4565,
      "Ġshape": 4566,
      "Ġheld": 4567,
      "Ġconsists": 4568,
      "ĠAlgorithm": 4569,
      "Ġdeproton": 4570,
      "fully": 4571,
      "Ġlogic": 4572,
      "Ġindicates": 4573,
      "Ġcharacteristic": 4574,
      "Ġnetwork": 4575,
      "ĠAksumite": 4576,
      "Ġethn": 4577,
      "Ġgeometry": 4578,
      "Ġstraight": 4579,
      "ĠMadagascar": 4580,
      "Ġsucceed": 4581,
      "king": 4582,
      "Â·": 4583,
      "erve": 4584,
      "orbit": 4585,
      "Ġfair": 4586,
      "rost": 4587,
      "Ġreform": 4588,
      "Ġnorm": 4589,
      "ama": 4590,
      "ĠMc": 4591,
      "Ġitem": 4592,
      "oping": 4593,
      "Ġimplic": 4594,
      "Ġassess": 4595,
      "Ġpreparation": 4596,
      "ĠReaction": 4597,
      "Ġ1995": 4598,
      "ï¬ĥcient": 4599,
      "ĠModels": 4600,
      "Ġschool": 4601,
      "ĠEuropean": 4602,
      "Ġcitiz": 4603,
      "83": 4604,
      "na": 4605,
      "ps": 4606,
      "oting": 4607,
      "ĠMiddle": 4608,
      "ĠNap": 4609,
      "iform": 4610,
      "Ġ44": 4611,
      "ĠInc": 4612,
      "Ġclaim": 4613,
      "Ġcontrib": 4614,
      "Ġshowing": 4615,
      "Ġevolution": 4616,
      "Ġsett": 4617,
      "ĠSea": 4618,
      "ĠUnion": 4619,
      "finance": 4620,
      "ĠMeO": 4621,
      "Ġcontinue": 4622,
      "Ġlogistic": 4623,
      "Ġinteresting": 4624,
      "Ġsymmetric": 4625,
      "ĠIndia": 4626,
      "Ġterrit": 4627,
      "ĠSimilarly": 4628,
      "och": 4629,
      "sl": 4630,
      "sue": 4631,
      "lege": 4632,
      "otes": 4633,
      "ĠCape": 4634,
      "racy": 4635,
      "Ġchain": 4636,
      "Ġiod": 4637,
      "Ġmathemat": 4638,
      "ĠAdd": 4639,
      "Ġapproximate": 4640,
      "Ġtemples": 4641,
      "ographic": 4642,
      "ĠPharaonic": 4643,
      "Ġinhabitants": 4644,
      "iary": 4645,
      "Ġson": 4646,
      "Ġwestern": 4647,
      "Ġhydride": 4648,
      "ĠCu": 4649,
      "Ġvirt": 4650,
      "ĠNiger": 4651,
      "Ġshare": 4652,
      "Ġjoint": 4653,
      "Ġgiving": 4654,
      "Ġexplan": 4655,
      "Ġrights": 4656,
      "ometallic": 4657,
      "Ġnucleus": 4658,
      "Ġfarm": 4659,
      "Ġremained": 4660,
      "Ġextremely": 4661,
      "Ġrespondents": 4662,
      "Ġthermodyn": 4663,
      "Ġrapidly": 4664,
      "76": 4665,
      "DP": 4666,
      "EA": 4667,
      "Het": 4668,
      "overy": 4669,
      "onding": 4670,
      "Ġwid": 4671,
      "aring": 4672,
      "ĠeV": 4673,
      "Ġhom": 4674,
      "unic": 4675,
      "Ġprote": 4676,
      "ĠLa": 4677,
      "uded": 4678,
      "oooo": 4679,
      "âĢ²,": 4680,
      "Ġdifferences": 4681,
      "Ġnonlinear": 4682,
      "Ġbootstrap": 4683,
      "Ġspeed": 4684,
      "Ġcheck": 4685,
      "Ġunderstanding": 4686,
      "Ġapplications": 4687,
      "Ġquadratic": 4688,
      "LU": 4689,
      "rs": 4690,
      "ware": 4691,
      "yle": 4692,
      "atically": 4693,
      "erior": 4694,
      "Ġbureauc": 4695,
      "Ġhold": 4696,
      "ĠCan": 4697,
      "ĠOur": 4698,
      "Ġrank": 4699,
      "Ġunchanged": 4700,
      "Ġacross": 4701,
      "Ġword": 4702,
      "ĠâĹ¦": 4703,
      "Ġoutc": 4704,
      "ĠStatistics": 4705,
      "Ġmanufact": 4706,
      "heses": 4707,
      "Ġcultiv": 4708,
      "Ġcattle": 4709,
      "Ġauthors": 4710,
      "Ġolefins": 4711,
      "ĠCarthagin": 4712,
      "ĠCarbonyl": 4713,
      "ĠHistory": 4714,
      "Ġfifth": 4715,
      "88": 4716,
      "90": 4717,
      "Si": 4718,
      "Ġvers": 4719,
      "Ġactions": 4720,
      "Ġband": 4721,
      "ington": 4722,
      "ĠIT": 4723,
      "ĠParis": 4724,
      "ops": 4725,
      "osp": 4726,
      "Ġchiral": 4727,
      "Ġincomes": 4728,
      "depend": 4729,
      "ended": 4730,
      "stitute": 4731,
      "ĠExp": 4732,
      "alyzed": 4733,
      "ĠNeolithic": 4734,
      "Ġorganic": 4735,
      "Ġcorresponds": 4736,
      "Ġpurpose": 4737,
      "Ġdesigned": 4738,
      "what": 4739,
      "Ġdefined": 4740,
      "Ġconclude": 4741,
      "Ġissues": 4742,
      "ĠAFRICA": 4743,
      "An": 4744,
      "based": 4745,
      "iers": 4746,
      "lam": 4747,
      "Ġą": 4748,
      "Ġcub": 4749,
      "Ġment": 4750,
      "Ġeight": 4751,
      "Ġreally": 4752,
      "Ġprove": 4753,
      "âĪ¥": 4754,
      "Ġseventh": 4755,
      "Ġknot": 4756,
      "Ġunlike": 4757,
      "rone": 4758,
      "Ġ95": 4759,
      "Ġquantitative": 4760,
      "ĠMechan": 4761,
      "Ġhighest": 4762,
      "Ġavoid": 4763,
      "Ġcombinations": 4764,
      "ography": 4765,
      "Ġsubset": 4766,
      "Ġdecrease": 4767,
      "Ġhappens": 4768,
      "Ġcommunities": 4769,
      "Ġcandid": 4770,
      ")âĪĴ": 4771,
      "65": 4772,
      "London": 4773,
      "].": 4774,
      "rative": 4775,
      "itect": 4776,
      "Ġanion": 4777,
      "Ġdz": 4778,
      "Ġreference": 4779,
      "Ġlm": 4780,
      "select": 4781,
      "ching": 4782,
      "ĠHar": 4783,
      "ĠâĪ¼": 4784,
      "Ġimper": 4785,
      "Ġimag": 4786,
      "Ġgoal": 4787,
      "Ġexped": 4788,
      "eck": 4789,
      "Ġsyn": 4790,
      "Ġrock": 4791,
      "ĠÏĦ": 4792,
      "ips": 4793,
      "ĠExper": 4794,
      "Ġ2004": 4795,
      "Ġdepict": 4796,
      "Ġï£¬": 4797,
      "Ġï£·": 4798,
      "Ġeffective": 4799,
      "Ġplayers": 4800,
      "Ġindeed": 4801,
      "Ġdynamics": 4802,
      "Ġquestions": 4803,
      "Ġagriculture": 4804,
      "ACK": 4805,
      "Ġensure": 4806,
      "omething": 4807,
      "Ġdivided": 4808,
      "ĠPROBLE": 4809,
      "61": 4810,
      "64": 4811,
      "Ġ.....": 4812,
      "Ġmind": 4813,
      "Ġrecip": 4814,
      "Ġcomes": 4815,
      "opoly": 4816,
      "ĠDj": 4817,
      "Ġresource": 4818,
      "cons": 4819,
      "Ġincom": 4820,
      "Ġmeet": 4821,
      "Ġdirections": 4822,
      "ĠAddition": 4823,
      "ĠSupply": 4824,
      "Ġlimited": 4825,
      "Ġnegro": 4826,
      "Ġoxid": 4827,
      "Ġinvolve": 4828,
      "ĠResear": 4829,
      "Ġpossibility": 4830,
      "ĠIntroduction": 4831,
      "Ġstabilization": 4832,
      "Ġinterpretation": 4833,
      "Ġdiagonal": 4834,
      "ĠPoverty": 4835,
      "ĠGrignard": 4836,
      "Ġperiods": 4837,
      "73": 4838,
      "ss": 4839,
      "ued": 4840,
      "Ã¼": 4841,
      "Ġtetrahed": 4842,
      "Ġsays": 4843,
      "Ġpain": 4844,
      "Ġwood": 4845,
      "ĠCong": 4846,
      "Ġfort": 4847,
      "ĠMany": 4848,
      "thing": 4849,
      "Ġ42": 4850,
      "Ġacqu": 4851,
      "Ġdesert": 4852,
      "ĠReact": 4853,
      "Ġmatrices": 4854,
      "iï¬ģed": 4855,
      "ometric": 4856,
      "sequent": 4857,
      "Ġplots": 4858,
      "Ġemployment": 4859,
      "Ġradicals": 4860,
      "Ġillustrated": 4861,
      "Ġexperimental": 4862,
      "Ġapplication": 4863,
      "mitted": 4864,
      "Ġridge": 4865,
      "Ġpressure": 4866,
      "Ġdipole": 4867,
      "ĠTRY": 4868,
      "72": 4869,
      "Ch": 4870,
      "right": 4871,
      "Ġcation": 4872,
      "Ġmut": 4873,
      "Ġhidden": 4874,
      "oms": 4875,
      "ĠSl": 4876,
      "unt": 4877,
      "ĠPrice": 4878,
      "Ġald": 4879,
      "iff": 4880,
      "ĠGroup": 4881,
      "ĠUpper": 4882,
      "Ġincent": 4883,
      "ĠÎ£": 4884,
      "Ġheav": 4885,
      "Ġemper": 4886,
      "Ġtypical": 4887,
      "Ġmaximize": 4888,
      "Ġapproximately": 4889,
      "Ġcharacteristics": 4890,
      "Ġabsence": 4891,
      "ĠOnly": 4892,
      "Ġselectivity": 4893,
      "Ġconcentration": 4894,
      "Ġirre": 4895,
      "Ġï¬ģtting": 4896,
      "Ġhyper": 4897,
      "Ġliterature": 4898,
      "Ġoutcomes": 4899,
      "kh": 4900,
      "Ġple": 4901,
      "alse": 4902,
      "rown": 4903,
      "Ġrelevant": 4904,
      "ows": 4905,
      "Ġconven": 4906,
      "ĠPers": 4907,
      "ĠEv": 4908,
      "ĠDer": 4909,
      "Ġjob": 4910,
      "augh": 4911,
      "Ġefforts": 4912,
      "Ġï¬ģrm": 4913,
      "Ġnuclei": 4914,
      "theless": 4915,
      "Ġdependent": 4916,
      "Ġnearly": 4917,
      "Ġevaluation": 4918,
      "Ġmaterials": 4919,
      "Ġclusters": 4920,
      "Ġslightly": 4921,
      ")/": 4922,
      "Alder": 4923,
      "St": 4924,
      "trans": 4925,
      "Ġmid": 4926,
      "ĠCase": 4927,
      "Ġproï¬ģ": 4928,
      "umb": 4929,
      "verage": 4930,
      "Ġadding": 4931,
      "ĠJust": 4932,
      "âĢ²|": 4933,
      "Ġpredictions": 4934,
      "Ġantiquity": 4935,
      "Ġphysics": 4936,
      "Ġkey": 4937,
      "Ġmagnitude": 4938,
      "Ġreplace": 4939,
      "Ġconjug": 4940,
      "membered": 4941,
      "%.": 4942,
      "68": 4943,
      "95": 4944,
      "Ne": 4945,
      "back": 4946,
      "ČČ": 4947,
      "Ġsomething": 4948,
      "Ġdates": 4949,
      "ĠCycl": 4950,
      "ĠHigh": 4951,
      "ĠDel": 4952,
      "ĠDiels": 4953,
      "Ġuniform": 4954,
      "Ġcompare": 4955,
      "astie": 4956,
      "Ġwilling": 4957,
      "Ġgoing": 4958,
      "nearest": 4959,
      "Ġlocation": 4960,
      "ĠCla": 4961,
      "Ġdomain": 4962,
      "Ġextended": 4963,
      "Ġresearchers": 4964,
      "Ġisolated": 4965,
      "ĠAlexandria": 4966,
      "Ġrepeated": 4967,
      "ister": 4968,
      "enty": 4969,
      "ĠTS": 4970,
      "lysis": 4971,
      "ĠOb": 4972,
      "ĠFore": 4973,
      "ĠBL": 4974,
      "Ġchanged": 4975,
      "Ġplaces": 4976,
      "weight": 4977,
      "Ġ2007": 4978,
      "Ġattract": 4979,
      "Ġpowerful": 4980,
      "Ġlearn": 4981,
      "Ġcalculation": 4982,
      "sony": 4983,
      "Ġoverlap": 4984,
      "ĠNapata": 4985,
      "Ġ]": 4986,
      "Ġwent": 4987,
      "Ġfash": 4988,
      "Ġbi": 4989,
      "Ġbag": 4990,
      "Ġdig": 4991,
      "Ġhyd": 4992,
      "ĠSene": 4993,
      "Ġgods": 4994,
      "ĠMan": 4995,
      "Ġalone": 4996,
      "ĠBY": 4997,
      "Ġsufficient": 4998,
      "Ġkcal": 4999,
      "ĠGu": 5000,
      "Ġï¬ģxed": 5001,
      "Ġarise": 5002,
      "Ġarmy": 5003,
      "atively": 5004,
      "Ġsurplus": 5005,
      "Ġrestric": 5006,
      "ĠIndian": 5007,
      "Ġspeciï¬ģ": 5008,
      "Ġcritical": 5009,
      "Ġsixth": 5010,
      "Ġcolumns": 5011,
      "Ġtreated": 5012,
      "Ġdistinct": 5013,
      "ortunately": 5014,
      "Ġtetrahedral": 5015,
      "cle": 5016,
      "econom": 5017,
      "Ġure": 5018,
      "Ġign": 5019,
      "Ġsent": 5020,
      "isation": 5021,
      "itted": 5022,
      "Ġinner": 5023,
      "Ġbring": 5024,
      "Ġhier": 5025,
      "omb": 5026,
      "amental": 5027,
      "ĠGerm": 5028,
      "ocks": 5029,
      "Ġleave": 5030,
      "othing": 5031,
      "Ġdecor": 5032,
      "Ġcyclohex": 5033,
      "Ġnetworks": 5034,
      "Ġcreated": 5035,
      "Ġnecessarily": 5036,
      "Ġdeï¬ģnition": 5037,
      "Ġreveal": 5038,
      "Ġdatas": 5039,
      "dy": 5040,
      "Ġself": 5041,
      "Ġcamp": 5042,
      "eds": 5043,
      "ĠTib": 5044,
      "omm": 5045,
      "Ġstri": 5046,
      "raz": 5047,
      "ĠHerm": 5048,
      "hensive": 5049,
      "ĠAnn": 5050,
      "Ġroute": 5051,
      "ensities": 5052,
      "roscop": 5053,
      "Ġpopular": 5054,
      "means": 5055,
      "Ġmonopol": 5056,
      "Ġprotect": 5057,
      "Ġcalculate": 5058,
      "Ġlaws": 5059,
      "Ġconclusions": 5060,
      "ĠMultiple": 5061,
      "84": 5062,
      "den": 5063,
      "ĠAid": 5064,
      "ĠCle": 5065,
      "ĠMost": 5066,
      "ivari": 5067,
      "ultane": 5068,
      "Ġusual": 5069,
      "Ġintervals": 5070,
      "Ġtraject": 5071,
      "ressed": 5072,
      "Ġadditions": 5073,
      "Ġsecondary": 5074,
      "Ġlocated": 5075,
      "Ġmultip": 5076,
      "Ġrespective": 5077,
      "Ġvalid": 5078,
      "Ġinvolving": 5079,
      "Ġearliest": 5080,
      "ĠErr": 5081,
      "Ġnamely": 5082,
      "Ġconsistent": 5083,
      "Ġencoura": 5084,
      "ĠCataract": 5085,
      "71": 5086,
      "TS": 5087,
      "hal": 5088,
      "iated": 5089,
      "anks": 5090,
      "Ġfaster": 5091,
      "Ġbin": 5092,
      "arly": 5093,
      "Ġmere": 5094,
      "stain": 5095,
      "ĠHa": 5096,
      "ĠOver": 5097,
      "Ġunknown": 5098,
      "cont": 5099,
      "ogene": 5100,
      "Ġâĩ": 5101,
      "Ġpreced": 5102,
      "Ġstudying": 5103,
      "Ġcleav": 5104,
      "Ġevaluate": 5105,
      "Ġschol": 5106,
      "ĠCentral": 5107,
      "Ġinequality": 5108,
      "bl": 5109,
      "mol": 5110,
      "squared": 5111,
      "Ġsure": 5112,
      "Ġhome": 5113,
      "ĠSource": 5114,
      "adem": 5115,
      "ĠDec": 5116,
      "ĠKat": 5117,
      "âŁ©âŁ¨": 5118,
      "Ġattention": 5119,
      "Ġindex": 5120,
      "Ġpresented": 5121,
      "Ġcombined": 5122,
      "ĠByzant": 5123,
      "poses": 5124,
      "Ġsplines": 5125,
      "Ġhetero": 5126,
      "ĠResearch": 5127,
      "02": 5128,
      "IV": 5129,
      "WER": 5130,
      "XT": 5131,
      "gam": 5132,
      "hÏī": 5133,
      "iency": 5134,
      "likelihood": 5135,
      "Ġport": 5136,
      "Ġpaid": 5137,
      "Ġfalse": 5138,
      "stant": 5139,
      "amm": 5140,
      "Ġdeath": 5141,
      "ople": 5142,
      "ĠDiop": 5143,
      "Ġadapt": 5144,
      "ĠProduct": 5145,
      "olysis": 5146,
      "Ġcorrespond": 5147,
      "Ġargue": 5148,
      "Ġconditional": 5149,
      "Ġdefinition": 5150,
      "Ġvanishes": 5151,
      "ĠCurve": 5152,
      "Ġhours": 5153,
      "Ġpiece": 5154,
      "ivariate": 5155,
      "SO": 5156,
      "cer": 5157,
      "Ġscience": 5158,
      "Ġrefer": 5159,
      "Ġnin": 5160,
      "ĠSur": 5161,
      "cean": 5162,
      "ĠMg": 5163,
      "ĠOs": 5164,
      "Ġsustain": 5165,
      "ago": 5166,
      "Ġimage": 5167,
      "hene": 5168,
      "Ġevol": 5169,
      "Ġprevent": 5170,
      "Ġgenerates": 5171,
      "Ġâīĥ": 5172,
      "irect": 5173,
      "Ġderive": 5174,
      "Ġchooses": 5175,
      "Ġoxy": 5176,
      "Ġreacts": 5177,
      "Ġboundaries": 5178,
      "Ġcharacterized": 5179,
      "ĠIndones": 5180,
      "Ġscalar": 5181,
      ")+(": 5182,
      "Ġstationary": 5183,
      "Ġcitizens": 5184,
      "Ġfashion": 5185,
      "Ġscholars": 5186,
      "09": 5187,
      "bel": 5188,
      "mies": 5189,
      "nel": 5190,
      "rite": 5191,
      "Ġsnow": 5192,
      "Ġinverse": 5193,
      "Ġdating": 5194,
      "Ġnation": 5195,
      "Ġnodes": 5196,
      "eties": 5197,
      "ĠSet": 5198,
      "ĠSem": 5199,
      "Ġbeam": 5200,
      "oline": 5201,
      "ĠPal": 5202,
      "Ġweek": 5203,
      "Ġsearch": 5204,
      "ĠÎ¾": 5205,
      "neighbor": 5206,
      "Ġsomewhat": 5207,
      "ĠZamb": 5208,
      "ensive": 5209,
      "Ġdownward": 5210,
      "Ġideas": 5211,
      "Ġmovement": 5212,
      "Ġdisplay": 5213,
      "Ġwidely": 5214,
      "Ġuncertainty": 5215,
      "Ġsubgame": 5216,
      "ÃĹ": 5217,
      "inks": 5218,
      "esian": 5219,
      "Ġinï¬Ĥ": 5220,
      "Ġbands": 5221,
      "arrow": 5222,
      "ĠShe": 5223,
      "oles": 5224,
      "race": 5225,
      "atever": 5226,
      "ĠLoc": 5227,
      "plane": 5228,
      "Ġ55": 5229,
      "Ġ500": 5230,
      "Ġcompr": 5231,
      "Ġability": 5232,
      "Ġimposed": 5233,
      "Ġscar": 5234,
      "Ġactive": 5235,
      "rable": 5236,
      "Ġaxes": 5237,
      "Ġarchitect": 5238,
      "Ġsalt": 5239,
      "ĠEstimate": 5240,
      "Ġdiscriminant": 5241,
      "Ġmicrofinance": 5242,
      "Ġtells": 5243,
      "Ġsymbol": 5244,
      "Ġexcavations": 5245,
      "ael": 5246,
      "ba": 5247,
      "ien": 5248,
      "rig": 5249,
      "Ġsac": 5250,
      "ĠTO": 5251,
      "ĠSi": 5252,
      "ĠSoci": 5253,
      "ola": 5254,
      "olate": 5255,
      "urs": 5256,
      "ĠMus": 5257,
      "ĠHel": 5258,
      "ĠHastie": 5259,
      "elimination": 5260,
      "Ġ2003": 5261,
      "Ġconstruction": 5262,
      "ĠAdditions": 5263,
      "Ġindustries": 5264,
      "ĠMOs": 5265,
      "Ġnitro": 5266,
      "Ġbreak": 5267,
      "statistic": 5268,
      "Ġaldol": 5269,
      "%,": 5270,
      "74": 5271,
      "81": 5272,
      "dx": 5273,
      "ony": 5274,
      "Ġfaces": 5275,
      "Ġdial": 5276,
      "Ġether": 5277,
      "âĪĪ": 5278,
      "ĠRn": 5279,
      "ibli": 5280,
      "bert": 5281,
      "Ġ79": 5282,
      "Ġsubsequent": 5283,
      "Ġstudied": 5284,
      "Ġgovernments": 5285,
      "Ġstarted": 5286,
      "Ġreasonable": 5287,
      "TIV": 5288,
      "ambridge": 5289,
      "Ġaffected": 5290,
      "Ġconclusion": 5291,
      "Ġï¬ģtted": 5292,
      "Ġconcerning": 5293,
      "semble": 5294,
      "ĂāĂā": 5295,
      "Ġconï¬ģdence": 5296,
      "Ġexplanation": 5297,
      "500": 5298,
      "Pr": 5299,
      "produ": 5300,
      "ini": 5301,
      "eries": 5302,
      "Ġcm": 5303,
      "oric": 5304,
      "Ġreï¬Ĥ": 5305,
      "Ġlost": 5306,
      "imals": 5307,
      "imethyl": 5308,
      "ĠCr": 5309,
      "ĠMs": 5310,
      "ĠNon": 5311,
      "Ġ41": 5312,
      "place": 5313,
      "acing": 5314,
      "Ġquick": 5315,
      "ĠJack": 5316,
      "ĠFigures": 5317,
      "Ġarises": 5318,
      "Ġpreferences": 5319,
      "ĠChina": 5320,
      "Ġphosph": 5321,
      "Ġsurpr": 5322,
      "Ã©t": 5323,
      "Ġpotentials": 5324,
      "Ġï¬ģnal": 5325,
      "Ġtriple": 5326,
      "ĠMarket": 5327,
      "Ġbounded": 5328,
      "Ġsituations": 5329,
      "Ġpractical": 5330,
      "ĠNewton": 5331,
      "ĠAssociation": 5332,
      "Ġchloride": 5333,
      "carbon": 5334,
      "Ġessentially": 5335,
      "62": 5336,
      "lar": 5337,
      "ois": 5338,
      "reen": 5339,
      "Ġpal": 5340,
      "Ġfo": 5341,
      "ask": 5342,
      "asion": 5343,
      "Ġhous": 5344,
      "lyc": 5345,
      "Ġvict": 5346,
      "aded": 5347,
      "Ġspat": 5348,
      "Ġincor": 5349,
      "Ġworth": 5350,
      "Ġcentre": 5351,
      "ensus": 5352,
      "Ġbases": 5353,
      "Ġstudent": 5354,
      "Ġconstants": 5355,
      "Ġ1994": 5356,
      "Ġ1997": 5357,
      "Ġalkenyl": 5358,
      "Ġdescription": 5359,
      "Ġproposed": 5360,
      "Ġcomplexes": 5361,
      "Ġillustrates": 5362,
      "Ġnumerous": 5363,
      "Ġremoved": 5364,
      "Ġeigenvectors": 5365,
      "2000": 5366,
      "Le": 5367,
      "itrust": 5368,
      "omin": 5369,
      "otic": 5370,
      "ĠIb": 5371,
      "ĠOut": 5372,
      "Ġallev": 5373,
      "Ġ300": 5374,
      "ounter": 5375,
      "ember": 5376,
      "agh": 5377,
      "Ġdiaz": 5378,
      "Ġsubjects": 5379,
      "Ġsoon": 5380,
      "Ġ89": 5381,
      "Ġ1992": 5382,
      "Ġï£®": 5383,
      "Ġï£¹": 5384,
      "Ġï¬ģnite": 5385,
      "Ġrevenues": 5386,
      "Ġlearned": 5387,
      "Ġintroduction": 5388,
      "Ġconcern": 5389,
      "Ġselected": 5390,
      "Ġmajority": 5391,
      "adiene": 5392,
      "Ġreplaced": 5393,
      "Ġdiscrimination": 5394,
      "ĠIndex": 5395,
      "Ġhousehold": 5396,
      "Ġinformal": 5397,
      "Ġinï¬ģnite": 5398,
      "ĠBackground": 5399,
      "Ġwidth": 5400,
      "(âĪĴ": 5401,
      "pite": 5402,
      "zer": 5403,
      "Ġiv": 5404,
      "Ġmount": 5405,
      "Ġthing": 5406,
      "Ġ1000": 5407,
      "ĠAk": 5408,
      "ĠSan": 5409,
      "ĠForm": 5410,
      "artment": 5411,
      "Ġshared": 5412,
      "ĠGl": 5413,
      "Ġsphere": 5414,
      "Ġequally": 5415,
      "Ġadvert": 5416,
      "Ġsimultane": 5417,
      "Ġagents": 5418,
      "Ġpeace": 5419,
      "ĠËĨÎ": 5420,
      "Ġcharged": 5421,
      "ropy": 5422,
      "ercial": 5423,
      "ĠAdjust": 5424,
      "Ġgeneralized": 5425,
      "Ġevaluated": 5426,
      "ĠAND": 5427,
      "ĠGeneral": 5428,
      "erlag": 5429,
      ".:": 5430,
      "85": 5431,
      "cial": 5432,
      "Ġ%": 5433,
      "Ġ),": 5434,
      "Ġau": 5435,
      "Ġwalls": 5436,
      "alo": 5437,
      "Ġbow": 5438,
      "ica": 5439,
      "Ġhar": 5440,
      "Ġhund": 5441,
      "ĠSov": 5442,
      "ĠInst": 5443,
      "Ġneither": 5444,
      "Ġappe": 5445,
      "Ġarc": 5446,
      "henyl": 5447,
      "Ġcentro": 5448,
      "Ġestimation": 5449,
      "Ġinteger": 5450,
      "Ġdiï¬Ģerential": 5451,
      "ĠArabia": 5452,
      "ĠAgain": 5453,
      "Ġylide": 5454,
      "ĠReduction": 5455,
      "Ġfamiliar": 5456,
      "Ġrisk": 5457,
      "(>": 5458,
      ",âĢľ": 5459,
      "94": 5460,
      "Ar": 5461,
      "CE": 5462,
      "RP": 5463,
      "methyl": 5464,
      "Ã¤": 5465,
      "Ġpaper": 5466,
      "Ġinfer": 5467,
      "Ġinference": 5468,
      "unsaturated": 5469,
      "ĠPN": 5470,
      "Ġexcess": 5471,
      "ĠFunction": 5472,
      "odium": 5473,
      "throp": 5474,
      "ĠâĪĴÂ¯": 5475,
      "Ġpreferred": 5476,
      "Ġminor": 5477,
      "Ġradiation": 5478,
      "Ġpersonal": 5479,
      "Ġcyclic": 5480,
      "dehyde": 5481,
      "amps": 5482,
      "iveness": 5483,
      "Ġcollected": 5484,
      "Ġconcerned": 5485,
      "ĠBoosting": 5486,
      "Ġconnected": 5487,
      "Exercise": 5488,
      "Ġrobot": 5489,
      "ĠResidual": 5490,
      "This": 5491,
      "ĠSenegal": 5492,
      "Ġheteroatom": 5493,
      "Ġoxygen": 5494,
      "ĠSoviet": 5495,
      "08": 5496,
      "We": 5497,
      "iem": 5498,
      "|)": 5499,
      "Ġcry": 5500,
      "Ġbill": 5501,
      "Ġmal": 5502,
      "Ġlingu": 5503,
      "Ġbeg": 5504,
      "ĠChe": 5505,
      "ĠCount": 5506,
      "Ġprojects": 5507,
      "Ġconvention": 5508,
      "ĠBon": 5509,
      "Ġshrinkage": 5510,
      "Ġneut": 5511,
      "agement": 5512,
      "Ġplants": 5513,
      "Ġ75": 5514,
      "Ġcover": 5515,
      "ĠStep": 5516,
      "ĠËĨp": 5517,
      "Ġearth": 5518,
      "Ġremark": 5519,
      "Ġnuclear": 5520,
      "Ġconsidering": 5521,
      "Ġmainly": 5522,
      "Ġexisted": 5523,
      "Ġstrongly": 5524,
      "Ġmultipl": 5525,
      "Ġhorse": 5526,
      "Inter": 5527,
      "ĠArchae": 5528,
      "Ġpicture": 5529,
      "Ġphenomenon": 5530,
      "ĠBLACK": 5531,
      "PR": 5532,
      "ris": 5533,
      "Ġak": 5534,
      "ancy": 5535,
      "ald": 5536,
      "Ġanimals": 5537,
      "Ġthreat": 5538,
      "Ġthrone": 5539,
      "ĠAre": 5540,
      "ĠCart": 5541,
      "Ġgenes": 5542,
      "ĠElectron": 5543,
      "ĠMac": 5544,
      "ĠLE": 5545,
      "oprop": 5546,
      "Ġshar": 5547,
      "ĠGraph": 5548,
      "Ġcompan": 5549,
      "Ġ64": 5550,
      "veloc": 5551,
      "Ġ99": 5552,
      "ypes": 5553,
      "Ġearn": 5554,
      "ĠGhanaian": 5555,
      "ĠPrinci": 5556,
      "Ġtriang": 5557,
      "Ġtransitions": 5558,
      "Ġprofess": 5559,
      "Ġserve": 5560,
      "omeric": 5561,
      "Ġmonopsony": 5562,
      "ugust": 5563,
      "1970": 5564,
      "oaddition": 5565,
      "Ġhimself": 5566,
      "Ġweighted": 5567,
      "Ġintermediates": 5568,
      "Ġfrequencies": 5569,
      "liers": 5570,
      "Ġattacked": 5571,
      "Ġburial": 5572,
      "Ġauthority": 5573,
      "Ġadministration": 5574,
      "Ġcontributions": 5575,
      "ĠDiscr": 5576,
      "Ġpurchase": 5577,
      "catalyzed": 5578,
      "ĠRadical": 5579,
      "Ġsubstantial": 5580,
      "Ġstrictly": 5581,
      "Ġcovariance": 5582,
      "Ġimmediately": 5583,
      "ĠGovernment": 5584,
      "%)": 5585,
      "IT": 5586,
      "Ġodd": 5587,
      "Ġce": 5588,
      "ctan": 5589,
      "ĠTan": 5590,
      "Ġlot": 5591,
      "Ġlived": 5592,
      "ĠSA": 5593,
      "umbered": 5594,
      "ĠOdd": 5595,
      "ĠBer": 5596,
      "irani": 5597,
      "aba": 5598,
      "Ġenj": 5599,
      "ĠÎĺ": 5600,
      "erved": 5601,
      "ĠLiby": 5602,
      "Ġparity": 5603,
      "Ġupward": 5604,
      "Ġbelief": 5605,
      "Ġmeasurements": 5606,
      "Ġplotted": 5607,
      "Ġinside": 5608,
      "ĠIslam": 5609,
      "Ġsocieties": 5610,
      "ĠSaharan": 5611,
      "Ġassigned": 5612,
      "Ġsatisï¬ģ": 5613,
      "Ġbenzyl": 5614,
      "Ġresidual": 5615,
      "Ġhouseholds": 5616,
      "Ġfamilies": 5617,
      "Ġneighbour": 5618,
      "Ġcategor": 5619,
      "Ġ.................................................................................................................": 5620,
      "Ġconnection": 5621,
      "Ġchalleng": 5622,
      "Ġthousand": 5623,
      "-,": 5624,
      "bra": 5625,
      "fortunately": 5626,
      "jk": 5627,
      "more": 5628,
      "Ġrough": 5629,
      "Ġbul": 5630,
      "Ġlat": 5631,
      "imb": 5632,
      "ĠIV": 5633,
      "umul": 5634,
      "rique": 5635,
      "ĠPublic": 5636,
      "ĠâĢĺ": 5637,
      "ĠOnce": 5638,
      "pping": 5639,
      "Ġunity": 5640,
      "Ġspher": 5641,
      "ĠKen": 5642,
      "ĠAnswers": 5643,
      "ĠState": 5644,
      "ateral": 5645,
      "Ġcenters": 5646,
      "ĠËĨÏĥ": 5647,
      "Ġoperation": 5648,
      "Ġsurvey": 5649,
      "pective": 5650,
      "Ġdetermining": 5651,
      "Ġpopulations": 5652,
      "Ġautom": 5653,
      "Ġshell": 5654,
      "Ġconvergence": 5655,
      "Ġcomputing": 5656,
      "ĠSimons": 5657,
      "Ġimplementation": 5658,
      "Ġneighboring": 5659,
      "Ġneighborhood": 5660,
      "Ġstrength": 5661,
      "Ġenjoy": 5662,
      "iate": 5663,
      "log": 5664,
      "oire": 5665,
      "substituted": 5666,
      "wis": 5667,
      "Ġbig": 5668,
      "ĠTrees": 5669,
      "âĢ¦": 5670,
      "imilar": 5671,
      "ĠCa": 5672,
      "olding": 5673,
      "owers": 5674,
      "urance": 5675,
      "Ġproof": 5676,
      "Ġwel": 5677,
      "ĠLat": 5678,
      "opes": 5679,
      "ifference": 5680,
      "Ġ52": 5681,
      "ptions": 5682,
      "conf": 5683,
      "igured": 5684,
      "Ġmode": 5685,
      "Ġcove": 5686,
      "Ġintervention": 5687,
      "Ġmonot": 5688,
      "iminations": 5689,
      "Ġrepresenting": 5690,
      "ï¬ĥcult": 5691,
      "rangements": 5692,
      "Ġfinds": 5693,
      "ĠEnolates": 5694,
      "Ġposterior": 5695,
      "Ġpromote": 5696,
      "Ġregarded": 5697,
      "Ġlabeled": 5698,
      "Ġagreement": 5699,
      "ĠMDG": 5700,
      "Ġpropositions": 5701,
      "Ġslowly": 5702,
      "Ġsnowbo": 5703,
      ".-": 5704,
      "EL": 5705,
      "SWER": 5706,
      "Ġlying": 5707,
      "Ġcod": 5708,
      "orus": 5709,
      "itian": 5710,
      "Ġfell": 5711,
      "Ġda": 5712,
      "Ġdr": 5713,
      "Ġasymmetric": 5714,
      "ĠPat": 5715,
      "Ġalt": 5716,
      "Ġattain": 5717,
      "ĠLec": 5718,
      "ĠLower": 5719,
      "anda": 5720,
      "Ġ62": 5721,
      "ĠUN": 5722,
      "ĠUt": 5723,
      "Ġgoes": 5724,
      "Ġmargin": 5725,
      "Ġround": 5726,
      "Ġdiffer": 5727,
      "ĠAltern": 5728,
      "Ġdepending": 5729,
      "Ġplayed": 5730,
      "Ġpayment": 5731,
      "ifying": 5732,
      "Ġstrategies": 5733,
      "supervised": 5734,
      "Ġcreate": 5735,
      "ĠArabian": 5736,
      "Ġcaused": 5737,
      "ĠANSWER": 5738,
      "Ġeliminations": 5739,
      "Ġfailure": 5740,
      "Ġfundamental": 5741,
      "ĠCoefficients": 5742,
      "Ġfairly": 5743,
      "Numbered": 5744,
      "WG": 5745,
      "fold": 5746,
      "lim": 5747,
      "ools": 5748,
      "zania": 5749,
      "Ġult": 5750,
      "Ġpi": 5751,
      "Ġnull": 5752,
      "states": 5753,
      "ĠSam": 5754,
      "ĠSpec": 5755,
      "ĠOrient": 5756,
      "Ġvast": 5757,
      "ĠLabor": 5758,
      "Ġrural": 5759,
      "rich": 5760,
      "Ġ51": 5761,
      "Ġunless": 5762,
      "empor": 5763,
      "ylene": 5764,
      "ĠKernel": 5765,
      "Ġmarked": 5766,
      "1157": 5767,
      "Ġpredicted": 5768,
      "Ġ1969": 5769,
      "ĠMarc": 5770,
      "Ġdecreasing": 5771,
      "Ġcircular": 5772,
      "¯ï£¯ï£¯ï£¯ï£": 5773,
      "ºï£ºï£ºï£ºï£": 5774,
      "ĠMali": 5775,
      "ĠEstim": 5776,
      "Ġdominated": 5777,
      "Ġintersect": 5778,
      "Ġconsequence": 5779,
      "Ġaspects": 5780,
      "Ġpublished": 5781,
      "ĠTibsh": 5782,
      "Intercept": 5783,
      "Ġcovered": 5784,
      "ĠLeclant": 5785,
      "89": 5786,
      "Sah": 5787,
      "from": 5788,
      "sin": 5789,
      "ĠĐ": 5790,
      "Ġveloc": 5791,
      "Ġsought": 5792,
      "Ġbody": 5793,
      "Ġrecon": 5794,
      "Ġlive": 5795,
      "Ġconduct": 5796,
      "rif": 5797,
      "iring": 5798,
      "ĠDyn": 5799,
      "ĠDuring": 5800,
      "ested": 5801,
      "ĠGar": 5802,
      "Ġsynt": 5803,
      "ĠReview": 5804,
      "Ġdiscover": 5805,
      "Ġterminal": 5806,
      "Ġslaves": 5807,
      "Ġsubstituted": 5808,
      "Ġassumes": 5809,
      "Ġ1960": 5810,
      "Ġ1967": 5811,
      "oselectively": 5812,
      "ĠLewis": 5813,
      "Ġsubstrates": 5814,
      "Ġoccupation": 5815,
      "Ġcorrelated": 5816,
      "Ġprotot": 5817,
      "ĠMethod": 5818,
      "ĠBefore": 5819,
      "Ġaccepted": 5820,
      "ĠKhoi": 5821,
      "Ġenvironmental": 5822,
      "yrus": 5823,
      "********************************": 5824,
      "Ġpyram": 5825,
      "Ġdecomposition": 5826,
      "Ġcondensation": 5827,
      "ĠMichael": 5828,
      "Ġprepared": 5829,
      "ĠTheoretical": 5830,
      "Ġterritory": 5831,
      "ĠCarthaginian": 5832,
      "ĠClaisen": 5833,
      "ĠInstead": 5834,
      "77": 5835,
      "82": 5836,
      "86": 5837,
      "gers": 5838,
      "gative": 5839,
      "lo": 5840,
      "mi": 5841,
      "py": 5842,
      "sa": 5843,
      "ords": 5844,
      "Ġwin": 5845,
      "Ġfa": 5846,
      "Ġfederal": 5847,
      "Ġbank": 5848,
      "Ġdated": 5849,
      "astern": 5850,
      "ĠTri": 5851,
      "Ġrevers": 5852,
      "Ġholds": 5853,
      "Ġissue": 5854,
      "Ġ250": 5855,
      "une": 5856,
      "ĠRam": 5857,
      "ĠHis": 5858,
      "ĠOcean": 5859,
      "Ġexhib": 5860,
      "Ġsuff": 5861,
      "Ġsuitable": 5862,
      "pled": 5863,
      "Ġ61": 5864,
      "Ġadds": 5865,
      "Ġtwenty": 5866,
      "iaz": 5867,
      "Ġsoft": 5868,
      "ĠVerlag": 5869,
      "Ġrare": 5870,
      "Ġdistributed": 5871,
      "Ġdiscovery": 5872,
      "Ġ150": 5873,
      "Ġresponses": 5874,
      "Ġ1965": 5875,
      "Ġdescribes": 5876,
      "Ġparametri": 5877,
      "Ġindustrial": 5878,
      "ashington": 5879,
      "Ġincludes": 5880,
      "ĠCHAP": 5881,
      "Ġsuccessful": 5882,
      "abilized": 5883,
      "Ġclosely": 5884,
      "Ġbroken": 5885,
      "Ġdecreases": 5886,
      "ĠAppro": 5887,
      "Ġexplained": 5888,
      "Ġsecurity": 5889,
      "âĨĴâĪŀ": 5890,
      "ĠTrade": 5891,
      "Ġelementary": 5892,
      "Ġbenzene": 5893,
      "Ġdiastereoselectivity": 5894,
      "ĠChristianity": 5895,
      "Ġadministrative": 5896,
      "ĠSmith": 5897,
      "Ġsavings": 5898,
      "ĠExperim": 5899,
      "ĠLocal": 5900,
      "ĠCartesian": 5901,
      "ĠCHAPTER": 5902,
      "CIS": 5903,
      "IR": 5904,
      "],": 5905,
      "dip": 5906,
      "hand": 5907,
      "Ġlib": 5908,
      "Ġprojection": 5909,
      "Ġstated": 5910,
      "Ġconform": 5911,
      "ĠPar": 5912,
      "ĠRandom": 5913,
      "ĠHal": 5914,
      "ĠHydro": 5915,
      "ĠOld": 5916,
      "ĠBak": 5917,
      "Ġsea": 5918,
      "acity": 5919,
      "Ġ65": 5920,
      "Ġadj": 5921,
      "Ġdiï¬ĥcult": 5922,
      "Ġobey": 5923,
      "anger": 5924,
      "ĠStrate": 5925,
      "Ġstatement": 5926,
      "Ġsetting": 5927,
      "ĠMean": 5928,
      "Ġobservable": 5929,
      "aximizing": 5930,
      "Ġaddress": 5931,
      "ERCIS": 5932,
      "Ġbuild": 5933,
      "Ġdenote": 5934,
      "Ġentirely": 5935,
      "ĠĠĠĠĠĠĠĠĠĠĠĠĠĠĠĠĠĠĠĠĠĠĠĠĠĠĠĠĠĠĠĠĠĠĠĠĠĠĠĠĠĠĠĠĠĠĠĠĠĠĠĠĠĠĠĠĠĠĠĠĠĠĠĠ": 5936,
      "rief": 5937,
      "Ġofficials": 5938,
      "Ġadopted": 5939,
      "ĠEXERCIS": 5940,
      "Ġcircumst": 5941,
      "Ġethnic": 5942,
      "Ġemperor": 5943,
      "Ġspatial": 5944,
      "ĠTibshirani": 5945,
      "ĠEXERCISES": 5946,
      "El": 5947,
      "cil": 5948,
      "ein": 5949,
      "fare": 5950,
      "Ġtot": 5951,
      "ctu": 5952,
      "Ġnone": 5953,
      "Ġnarrow": 5954,
      "Ġlic": 5955,
      "Ġsto": 5956,
      "ĠPRE": 5957,
      "ĠRx": 5958,
      "Ġcomplic": 5959,
      "ĠLondon": 5960,
      "Ġsovere": 5961,
      "Ġ92": 5962,
      "ĠStd": 5963,
      "Ġreprodu": 5964,
      "Ġproviding": 5965,
      "Ġobtains": 5966,
      "Ġ1966": 5967,
      "Ġoccurred": 5968,
      "Ġmetres": 5969,
      "Ġdistributions": 5970,
      "Ġpresum": 5971,
      "Ġcontained": 5972,
      "Ġrefers": 5973,
      "Ġnucleophilic": 5974,
      "prim": 5975,
      "Ġturns": 5976,
      "Ġsellers": 5977,
      "Ġdiagram": 5978,
      "Ġresiduals": 5979,
      "Ġcloser": 5980,
      "Ġgradually": 5981,
      "Ġvirtually": 5982,
      "dependent": 5983,
      "Ġknots": 5984,
      "Ġcompanies": 5985,
      "03": 5986,
      "92": 5987,
      "93": 5988,
      "ST": 5989,
      "aut": 5990,
      "che": 5991,
      "pop": 5992,
      "tu": 5993,
      "Ġtren": 5994,
      "Ġfart": 5995,
      "Ġmap": 5996,
      "Ġdf": 5997,
      "Ġdensities": 5998,
      "Ġreject": 5999,
      "ĠSol": 6000,
      "cell": 6001,
      "ĠHess": 6002,
      "Ġvs": 6003,
      "Ġiter": 6004,
      "apyrus": 6005,
      "Ġ54": 6006,
      "ocarb": 6007,
      "Ġï¬ģts": 6008,
      "Ġexport": 6009,
      "Ġ93": 6010,
      "Ġtrace": 6011,
      "Ġroutes": 6012,
      "ĠZe": 6013,
      "Ġworkup": 6014,
      "Ġcommercial": 6015,
      "Ġfeet": 6016,
      "ĠCompre": 6017,
      "Ġsmallest": 6018,
      "Ġï¬ģnding": 6019,
      "Ġ1971": 6020,
      "Ġedge": 6021,
      "Ġflow": 6022,
      "Ġfewer": 6023,
      "ĠPeri": 6024,
      "Ġviewed": 6025,
      "Ġtheoretical": 6026,
      "ĠEthiopian": 6027,
      "Ġhappen": 6028,
      "Ġloan": 6029,
      "Ġviol": 6030,
      "Ġconnect": 6031,
      "Ġexceeds": 6032,
      "Ġdocument": 6033,
      "ĠFriedman": 6034,
      "Ġdepicted": 6035,
      "04": 6036,
      "AT": 6037,
      "Ek": 6038,
      "bre": 6039,
      "coe": 6040,
      "ym": 6041,
      "Ġbinary": 6042,
      "umer": 6043,
      "riers": 6044,
      "ĠâĢł": 6045,
      "ĠRoad": 6046,
      "ĠHu": 6047,
      "used": 6048,
      "ĠBre": 6049,
      "Ġvar": 6050,
      "Ġ***": 6051,
      "ĠDoes": 6052,
      "ibration": 6053,
      "ĠâĪĴ(": 6054,
      "Ġadequ": 6055,
      "Ġplaced": 6056,
      "Ġclosed": 6057,
      "Ġapplies": 6058,
      "Ġdie": 6059,
      "Ġshowed": 6060,
      "ĠSelection": 6061,
      "Ġ1999": 6062,
      "Ġalkoxide": 6063,
      "Ġpursu": 6064,
      "Ġpurposes": 6065,
      "1996": 6066,
      "Ġpossibly": 6067,
      "Ġdetailed": 6068,
      "Ġalgorithms": 6069,
      "ĠCompet": 6070,
      "ĠTHF": 6071,
      "Ġbuildings": 6072,
      "Ġfavor": 6073,
      "ĠDepartment": 6074,
      "Ġpropagation": 6075,
      "Ġdegenerate": 6076,
      "Ġprotection": 6077,
      "Ġrestricted": 6078,
      "Ġcryst": 6079,
      ")}": 6080,
      "LON": 6081,
      "ef": 6082,
      "ners": 6083,
      "well": 6084,
      "iting": 6085,
      "Ġwish": 6086,
      "Ġanh": 6087,
      "Ġmother": 6088,
      "Ġtool": 6089,
      "ĠSV": 6090,
      "ĠSal": 6091,
      "ĠSocial": 6092,
      "ilateral": 6093,
      "olt": 6094,
      "ĠEffect": 6095,
      "raction": 6096,
      "ĠBar": 6097,
      "ĠNil": 6098,
      "dust": 6099,
      "plines": 6100,
      "Ġchron": 6101,
      "ribed": 6102,
      "Ġplus": 6103,
      "ights": 6104,
      "erma": 6105,
      "Ġdisp": 6106,
      "Ġcoins": 6107,
      "Ġinterview": 6108,
      "Ġpreferent": 6109,
      "Ġsimulation": 6110,
      "Ġ||": 6111,
      "Ġsolving": 6112,
      "Ġdecide": 6113,
      "indered": 6114,
      "Ġlargely": 6115,
      "Ġ1972": 6116,
      "Ġcomplexity": 6117,
      "Ġserious": 6118,
      "Ġboats": 6119,
      "Ġsurfaces": 6120,
      "Ġseparated": 6121,
      "Ġspeak": 6122,
      "Ġprocedures": 6123,
      "Ġstatus": 6124,
      "ĠAdditive": 6125,
      "Ġcubic": 6126,
      "ĠâĩĴ": 6127,
      "Ġquickly": 6128,
      "Saharan": 6129,
      "ĠPeriplus": 6130,
      "87": 6131,
      "AY": 6132,
      "IB": 6133,
      "Pro": 6134,
      "Se": 6135,
      "gu": 6136,
      "Ġ^": 6137,
      "Ġoz": 6138,
      "iny": 6139,
      "Ġtheories": 6140,
      "Ġsun": 6141,
      "Ġportion": 6142,
      "lets": 6143,
      "ĠAugust": 6144,
      "olis": 6145,
      "ĠPL": 6146,
      "ĠFar": 6147,
      "Ġvaries": 6148,
      "ĠWestern": 6149,
      "ests": 6150,
      "Ġunivers": 6151,
      "acet": 6152,
      "tting": 6153,
      "Ġ94": 6154,
      "Ġtransport": 6155,
      "Ġcentered": 6156,
      "Ġsmok": 6157,
      "Ġsurro": 6158,
      "Ġeigenstates": 6159,
      "ĠNeural": 6160,
      "ilibria": 6161,
      "ĠMark": 6162,
      "Ġdiï¬Ģerentiable": 6163,
      "Ġarguments": 6164,
      "Ġconversion": 6165,
      "Ġcourt": 6166,
      "Ġ1989": 6167,
      "rows": 6168,
      "ographical": 6169,
      "butyl": 6170,
      "Ġsettlement": 6171,
      "Ġthermodynamic": 6172,
      "ĠPROBLEMS": 6173,
      "ogeneous": 6174,
      "Ġadvertising": 6175,
      "IF": 6176,
      "een": 6177,
      "ios": 6178,
      "lab": 6179,
      "wa": 6180,
      "Ġđ": 6181,
      "ita": 6182,
      "Ġballs": 6183,
      "ication": 6184,
      "icular": 6185,
      "Ġdro": 6186,
      "Ġnom": 6187,
      "Ġnode": 6188,
      "Ġgap": 6189,
      "ĠIMF": 6190,
      "Ġstret": 6191,
      "ĠEWG": 6192,
      "ĠRE": 6193,
      "ĠBrit": 6194,
      "Ġwhatever": 6195,
      "ector": 6196,
      "ï¬ģned": 6197,
      "ĠGreat": 6198,
      "Ġimages": 6199,
      "Ġcontempor": 6200,
      "Ġsubsequently": 6201,
      "energy": 6202,
      "Ġamides": 6203,
      "ĠReven": 6204,
      "Ġdistances": 6205,
      "Ġ2015": 6206,
      "atorial": 6207,
      "Ġprovinces": 6208,
      "Ġcollege": 6209,
      "Ġtesting": 6210,
      "Ġinterested": 6211,
      "ramolecular": 6212,
      "Ġcomputers": 6213,
      "Ġreasoning": 6214,
      "ĠRegular": 6215,
      "Ġexpressions": 6216,
      "ARS": 6217,
      "Ġcommonly": 6218,
      "urban": 6219,
      "Ġ.................................................................................": 6220,
      "Ġrecognized": 6221,
      "Ġelectrophile": 6222,
      "Ġfragments": 6223,
      "Ġenantiomerically": 6224,
      "ĠWheland": 6225,
      "Ġunlikely": 6226,
      "Ġconvenient": 6227,
      "ĠHermitian": 6228,
      "Ġmerely": 6229,
      "ĠHessian": 6230,
      "gg": 6231,
      "pire": 6232,
      "ti": 6233,
      "Ġdram": 6234,
      "ĠAverage": 6235,
      "ille": 6236,
      "unds": 6237,
      "amine": 6238,
      "Ġpros": 6239,
      "ĠPres": 6240,
      "ĠPop": 6241,
      "ĠEy": 6242,
      "ĠBibli": 6243,
      "ĠâĢ¢âĢ¢âĢ¢": 6244,
      "ĠIncome": 6245,
      "acetal": 6246,
      "ciences": 6247,
      "ĠXT": 6248,
      "ĠAny": 6249,
      "stitu": 6250,
      "Ġreports": 6251,
      "Ġmanif": 6252,
      "Ġtechnique": 6253,
      "Ġreactive": 6254,
      "2007": 6255,
      "Ġinstr": 6256,
      "Ġ1980": 6257,
      "ĠEconomists": 6258,
      "plication": 6259,
      "Ġmember": 6260,
      "Ġactivation": 6261,
      "Ġdenoted": 6262,
      "Ġrecently": 6263,
      "âĢ¢âĢ¢âĢ¢âĢ¢âĢ¢âĢ¢âĢ¢âĢ¢âĢ¢âĢ¢âĢ¢âĢ¢âĢ¢âĢ¢âĢ¢âĢ¢âĢ¢âĢ¢âĢ¢âĢ¢âĢ¢âĢ¢âĢ¢âĢ¢âĢ¢âĢ¢âĢ¢âĢ¢âĢ¢âĢ¢âĢ¢âĢ¢": 6264,
      "ĠPolic": 6265,
      "Ġfarmers": 6266,
      "ĠMechanism": 6267,
      "configured": 6268,
      "ĠComprehensive": 6269,
      "98": 6270,
      "CT": 6271,
      "kyl": 6272,
      "essel": 6273,
      "Ġbid": 6274,
      "Ġdot": 6275,
      "Ġey": 6276,
      "ĠTop": 6277,
      "quares": 6278,
      "rian": 6279,
      "ĠEner": 6280,
      "âĪļ": 6281,
      "ĠHut": 6282,
      "odot": 6283,
      "duction": 6284,
      "Ġseven": 6285,
      "ĠKn": 6286,
      "Ġquar": 6287,
      "Ġcontent": 6288,
      "Ġ77": 6289,
      "ĠXj": 6290,
      "aux": 6291,
      "Ġinterior": 6292,
      "Ġ87": 6293,
      "Ġrelate": 6294,
      "Ġdesired": 6295,
      "Ġ120": 6296,
      "Ġattrib": 6297,
      "paramet": 6298,
      "Ġsigns": 6299,
      "archy": 6300,
      "Ġassuming": 6301,
      "Ġfinally": 6302,
      "1972": 6303,
      "ĠGreeks": 6304,
      "Ġortho": 6305,
      "Ġassigns": 6306,
      "Ġinscription": 6307,
      "Ġgasoline": 6308,
      "Ġsatisfy": 6309,
      "Ġdocuments": 6310,
      "Ġallocation": 6311,
      "(>|": 6312,
      "ĠMarcus": 6313,
      "Ep": 6314,
      "ees": 6315,
      "gic": 6316,
      "hai": 6317,
      "ls": 6318,
      "yer": 6319,
      "arse": 6320,
      "Ġretain": 6321,
      "olit": 6322,
      "Ġsta": 6323,
      "Ġstability": 6324,
      "ĠHy": 6325,
      "ĠOB": 6326,
      "ĠBas": 6327,
      "uret": 6328,
      "irical": 6329,
      "ĠLike": 6330,
      "oper": 6331,
      "Ġensemble": 6332,
      "Ġapplying": 6333,
      "deï¬ģned": 6334,
      "Ġago": 6335,
      "Ġundert": 6336,
      "ĠAsia": 6337,
      "Ġworked": 6338,
      "ĠAlso": 6339,
      "Ġ2010": 6340,
      "Ġacidic": 6341,
      "Ġalkenes": 6342,
      "Ġboost": 6343,
      "Ġconverges": 6344,
      "ĠEngl": 6345,
      "ĠPergam": 6346,
      "Ġextensive": 6347,
      "Ġtransformations": 6348,
      "ĠIndeed": 6349,
      "Ġdissimilar": 6350,
      "Ġylides": 6351,
      "Ġplausible": 6352,
      "Ġapparently": 6353,
      "Ġabsorption": 6354,
      "Ġexplicitly": 6355,
      "Ġmathematical": 6356,
      "Ġfarther": 6357,
      "Ġpreferentially": 6358,
      "odotus": 6359,
      "ĠPergamon": 6360,
      "Crafts": 6361,
      "HO": 6362,
      "World": 6363,
      "free": 6364,
      "Ġurn": 6365,
      "Ġcal": 6366,
      "Ġfather": 6367,
      "Ġbal": 6368,
      "arant": 6369,
      "Ġdrop": 6370,
      "Ġdedu": 6371,
      "Ġthir": 6372,
      "imately": 6373,
      "ĠCy": 6374,
      "urg": 6375,
      "ung": 6376,
      "Ġster": 6377,
      "version": 6378,
      "ĠPa": 6379,
      "ĠEar": 6380,
      "Ġdead": 6381,
      "ĠWill": 6382,
      "ĠDeterm": 6383,
      "Ġ400": 6384,
      "ibilities": 6385,
      "oung": 6386,
      "Ġchur": 6387,
      "contain": 6388,
      "Ġequilibria": 6389,
      "Ġ72": 6390,
      "Ġ73": 6391,
      "âĢ²âĢ²": 6392,
      "Ġsolv": 6393,
      "Ġdecisions": 6394,
      "Ġmonitor": 6395,
      "Ġdepos": 6396,
      "ĠPhys": 6397,
      "Ġmeasuring": 6398,
      "Ġextract": 6399,
      "Ġmaximizing": 6400,
      "Ġproperly": 6401,
      "Ġoffice": 6402,
      "2006": 6403,
      "Ġski": 6404,
      "Ġgraphical": 6405,
      "Ġsummar": 6406,
      "Ġreported": 6407,
      "Ġtribes": 6408,
      "ski": 6409,
      "Ġtombs": 6410,
      "Ġprecisely": 6411,
      "Ġmachine": 6412,
      "Ġpeaks": 6413,
      "ĠNucleophilic": 6414,
      "ĠIncre": 6415,
      "sloping": 6416,
      "ĠDelta": 6417,
      "ĠZambia": 6418,
      "Ġspherical": 6419,
      "Squared": 6420,
      "iÏĨ": 6421,
      "mar": 6422,
      "po": 6423,
      "uge": 6424,
      "uous": 6425,
      "âī": 6426,
      "oring": 6427,
      "Ġpowers": 6428,
      "anol": 6429,
      "Ġanc": 6430,
      "Ġfire": 6431,
      "icago": 6432,
      "oman": 6433,
      "ĠSong": 6434,
      "ĠScient": 6435,
      "Ġstyle": 6436,
      "ĠEvalu": 6437,
      "ĠâĢ¦": 6438,
      "ĠRh": 6439,
      "ĠBox": 6440,
      "elt": 6441,
      "ĠInformation": 6442,
      "Ġimm": 6443,
      "cious": 6444,
      "Ġtruth": 6445,
      "Ġarctan": 6446,
      "ĠâĦ¦": 6447,
      "Ġ91": 6448,
      "Ġ85": 6449,
      "Ġ104": 6450,
      "ĠStart": 6451,
      "never": 6452,
      "Ġamino": 6453,
      "ĠZn": 6454,
      "Ġoperate": 6455,
      "ĠAdv": 6456,
      "values": 6457,
      "boronic": 6458,
      "Ġtechnological": 6459,
      "Ġsocialist": 6460,
      "Ġcollision": 6461,
      "Ġcalculations": 6462,
      "Ġkinds": 6463,
      "Ġwavefunctions": 6464,
      "atomic": 6465,
      "ĠElastic": 6466,
      "ENT": 6467,
      "Ġsignificance": 6468,
      "Ġsupervised": 6469,
      "Ġgeometries": 6470,
      "ĠHetero": 6471,
      "ĠMauret": 6472,
      "Ġrevolution": 6473,
      "Ġtowns": 6474,
      "aphth": 6475,
      "ĠFriedel": 6476,
      "Ġcontacts": 6477,
      "Ġexclusively": 6478,
      "Ġresponsible": 6479,
      "Ġhundred": 6480,
      "ĠKenya": 6481,
      "Ġwelfare": 6482,
      "(âĢľ": 6483,
      "aign": 6484,
      "da": 6485,
      "length": 6486,
      "oz": 6487,
      "oalk": 6488,
      "sub": 6489,
      "xk": 6490,
      "Ġib": 6491,
      "Ġ.........": 6492,
      "rect": 6493,
      "Ġwind": 6494,
      "Ġanthrop": 6495,
      "Ġfurn": 6496,
      "Ġisland": 6497,
      "stract": 6498,
      "utt": 6499,
      "ĠEM": 6500,
      "Ġexcl": 6501,
      "ĠBen": 6502,
      "ĠBet": 6503,
      "ĠNever": 6504,
      "akes": 6505,
      "Ġspam": 6506,
      "Ġheart": 6507,
      "ogen": 6508,
      "Ġjo": 6509,
      "Ġthereby": 6510,
      "Ġii": 6511,
      "Ġprefer": 6512,
      "Ġfacts": 6513,
      "Ġzer": 6514,
      "Ġprovision": 6515,
      "Ġlabels": 6516,
      "Ġexplains": 6517,
      "Ġtests": 6518,
      "Ġ.................................................": 6519,
      "Ġantitrust": 6520,
      "Ġindependence": 6521,
      "Ġfrequently": 6522,
      "Ġregularization": 6523,
      "Ġobjective": 6524,
      "Ġcarrying": 6525,
      "Ġreflects": 6526,
      "Ġconstructed": 6527,
      "Ġacylating": 6528,
      "Ġintersection": 6529,
      "ĠPtolemy": 6530,
      "ĠHerodotus": 6531,
      "Ġframework": 6532,
      "Ġsucceeded": 6533,
      "Ġsettled": 6534,
      "Ġcleavage": 6535,
      "ĠAdjusted": 6536,
      "ĠPrincipal": 6537,
      "DC": 6538,
      "Egypt": 6539,
      "SP": 6540,
      "WAY": 6541,
      "bors": 6542,
      "ez": 6543,
      "molecular": 6544,
      "Ġ\\": 6545,
      "error": 6546,
      "Ġsaf": 6547,
      "Ġinel": 6548,
      "Ġfields": 6549,
      "Ġball": 6550,
      "Ġdanger": 6551,
      "inger": 6552,
      "ĠCour": 6553,
      "ĠCoul": 6554,
      "idations": 6555,
      "ĠIll": 6556,
      "unding": 6557,
      "ĠMill": 6558,
      "ĠHad": 6559,
      "ĠFlem": 6560,
      "ĠFren": 6561,
      "Ġdeep": 6562,
      "Ġvic": 6563,
      "ĠNk": 6564,
      "ĠâĪ¥": 6565,
      "ĠâĪĩ": 6566,
      "ĠLes": 6567,
      "Ġrig": 6568,
      "Ġ000": 6569,
      "ĠWork": 6570,
      "ĠWhere": 6571,
      "aine": 6572,
      "Ġ53": 6573,
      "Ġwhenever": 6574,
      "Ġ63": 6575,
      "Ġspend": 6576,
      "Ġacylation": 6577,
      "Ġdiver": 6578,
      "Ġoutl": 6579,
      "ĠAng": 6580,
      "endix": 6581,
      "ĠÏµ": 6582,
      "Ġmonuments": 6583,
      "Ġoperating": 6584,
      "obut": 6585,
      "ĠNearest": 6586,
      "Ġpayments": 6587,
      "ĠOrbit": 6588,
      "Ġidentified": 6589,
      "Ġavo": 6590,
      "Ġgreatest": 6591,
      "ĠRespon": 6592,
      "Ġexisting": 6593,
      "Ġtertiary": 6594,
      "Ġoriented": 6595,
      "Ġtrying": 6596,
      "Ġhunting": 6597,
      "agasy": 6598,
      "ĠTechn": 6599,
      "Ġphoton": 6600,
      "Ġclosest": 6601,
      "Ġmisclass": 6602,
      "Ġdataset": 6603,
      "As": 6604,
      "VI": 6605,
      "Xj": 6606,
      "ires": 6607,
      "pe": 6608,
      "Â¨": 6609,
      "Ġ!": 6610,
      "Ġtan": 6611,
      "Ġoï¬Ģ": 6612,
      "Ġ..": 6613,
      "Ġsens": 6614,
      "Ġfaced": 6615,
      "ĠSz": 6616,
      "amed": 6617,
      "ula": 6618,
      "Ġstre": 6619,
      "ĠMay": 6620,
      "ĠHay": 6621,
      "ĠBro": 6622,
      "hers": 6623,
      "gebra": 6624,
      "Ġrising": 6625,
      "ĠIndust": 6626,
      "ighbors": 6627,
      "Ġcontract": 6628,
      "Ġ76": 6629,
      "Ġvariation": 6630,
      "Ġsubstitute": 6631,
      "Ġrepresentations": 6632,
      "Ġdetermines": 6633,
      "related": 6634,
      "Ġcombine": 6635,
      "Ġappearance": 6636,
      "ĠAmen": 6637,
      "Ġgraphs": 6638,
      "Ġrearrangements": 6639,
      "Ġfamous": 6640,
      "Ġscaling": 6641,
      "Ġnumerical": 6642,
      "Ġsplitting": 6643,
      "Ġforests": 6644,
      "Ġrows": 6645,
      "Ġbuyers": 6646,
      "ĠClassiï¬ģcation": 6647,
      "Ġcustomers": 6648,
      "Ġfragment": 6649,
      "Ġconstraints": 6650,
      "Ġemphas": 6651,
      "rolled": 6652,
      "Ġcircumstances": 6653,
      "coef": 6654,
      "ĠFleming": 6655,
      "\")": 6656,
      "+,": 6657,
      "can": 6658,
      "ni": 6659,
      "vial": 6660,
      "Î½": 6661,
      "Ïģ": 6662,
      "ĉĊ": 6663,
      "ĠĆ": 6664,
      "Ġurban": 6665,
      "Ġaque": 6666,
      "Ġcy": 6667,
      "Ġcode": 6668,
      "Ġinert": 6669,
      "Ġanimal": 6670,
      "Ġmac": 6671,
      "Ġmax": 6672,
      "Ġdry": 6673,
      "Ġdimin": 6674,
      "Ġnative": 6675,
      "ĠScience": 6676,
      "uts": 6677,
      "Ġgall": 6678,
      "celer": 6679,
      "ĠTheb": 6680,
      "Ġstones": 6681,
      "Ġasked": 6682,
      "ĠMicro": 6683,
      "ĠRSS": 6684,
      "Ġdeli": 6685,
      "ĠNO": 6686,
      "ifically": 6687,
      "Ġshap": 6688,
      "Ġenorm": 6689,
      "Ġartic": 6690,
      "Ġintercept": 6691,
      "ĠâĬ": 6692,
      "ronze": 6693,
      "arett": 6694,
      "Ġagency": 6695,
      "Ġnoise": 6696,
      "Ġunderlying": 6697,
      "Ġ2009": 6698,
      "ĠUnfortunately": 6699,
      "Ġpara": 6700,
      "Ġparad": 6701,
      "Ġteam": 6702,
      "ĠPhil": 6703,
      "Ġmining": 6704,
      "Ġlogical": 6705,
      "Ġ1962": 6706,
      "Ġblue": 6707,
      "Ġrecomm": 6708,
      "valent": 6709,
      "Ġoutputs": 6710,
      "Ġtechnical": 6711,
      "Ġ.....................................": 6712,
      "Ġminimize": 6713,
      "1967": 6714,
      "Ġconfir": 6715,
      "Ġpasseng": 6716,
      "Ġbrother": 6717,
      "Ġimproved": 6718,
      "Ġlooking": 6719,
      "Ġdrawing": 6720,
      "attered": 6721,
      "Ġbelonging": 6722,
      "Ġproceeds": 6723,
      "Ġneighbors": 6724,
      "ĠPharaohs": 6725,
      "ĠForeign": 6726,
      "Ġsustainable": 6727,
      "product": 6728,
      "Ġivory": 6729,
      "Ġbillion": 6730,
      "Ġcomplicated": 6731,
      ")-": 6732,
      "Ka": 6733,
      "cos": 6734,
      "cers": 6735,
      "dpi": 6736,
      "gment": 6737,
      "ipped": 6738,
      "maximizing": 6739,
      "type": 6740,
      "inder": 6741,
      "erary": 6742,
      "Ġcyl": 6743,
      "Ġcru": 6744,
      "Ġcrop": 6745,
      "Ġparent": 6746,
      "Ġbrief": 6747,
      "Ġthresh": 6748,
      "Ġrele": 6749,
      "igarett": 6750,
      "Ġglyc": 6751,
      "ift": 6752,
      "ĠWashington": 6753,
      "Ġchance": 6754,
      "ĠUp": 6755,
      "Ġdise": 6756,
      "Ġexpend": 6757,
      "Ġsole": 6758,
      "Ġsoil": 6759,
      "Ġprehist": 6760,
      "ĠProve": 6761,
      "Ġdiscrete": 6762,
      "ailed": 6763,
      "Ġindifference": 6764,
      "ĠCompar": 6765,
      "Ġ1993": 6766,
      "Ġattached": 6767,
      "ologists": 6768,
      "Ġassumptions": 6769,
      "Ġ1968": 6770,
      "Ġhydrolysis": 6771,
      "Ġtried": 6772,
      "Ġorganizations": 6773,
      "Ġprinciples": 6774,
      "2004": 6775,
      "Ġcomputation": 6776,
      "forward": 6777,
      "Ġdirected": 6778,
      "ĠEquilibrium": 6779,
      "Ġbarriers": 6780,
      "Ġacceptor": 6781,
      "Ġhypotheses": 6782,
      "Ġguarant": 6783,
      "Ġconcepts": 6784,
      "ijk": 6785,
      "Ġsignificantly": 6786,
      "Ġfacing": 6787,
      "Ġcustom": 6788,
      "Ġbelieve": 6789,
      "Ġrestrictions": 6790,
      "ĠMoroc": 6791,
      "Ġaccomp": 6792,
      "Ġdistinguish": 6793,
      "ĠSumm": 6794,
      "Ġrecorded": 6795,
      "Ġpiecewise": 6796,
      "Ġsterically": 6797,
      "Ġinelastic": 6798,
      "AM": 6799,
      "IAL": 6800,
      "book": 6801,
      "mber": 6802,
      "wr": 6803,
      "xj": 6804,
      "Ġap": 6805,
      "Ġast": 6806,
      "Ġolig": 6807,
      "enge": 6808,
      "Ġcere": 6809,
      "Ġwors": 6810,
      "ĠAld": 6811,
      "ĠCON": 6812,
      "ĠPO": 6813,
      "ĠMul": 6814,
      "ĠMach": 6815,
      "ĠOEt": 6816,
      "add": 6817,
      "ĠWar": 6818,
      "Ġintramolecular": 6819,
      "Ġ71": 6820,
      "Ġtruc": 6821,
      "Ġprobable": 6822,
      "âŁ©)": 6823,
      "earrangements": 6824,
      "Ġâī«": 6825,
      "stems": 6826,
      "ĠËĨy": 6827,
      "ails": 6828,
      "Ġdecay": 6829,
      "ĠComm": 6830,
      "Ġcapacity": 6831,
      "airs": 6832,
      "yclic": 6833,
      "Ġintegration": 6834,
      "Ġorganometallic": 6835,
      "Ġreactivity": 6836,
      "Ġflu": 6837,
      "Ġ578": 6838,
      "Ġphenyl": 6839,
      "ĠRomans": 6840,
      "Ġdrive": 6841,
      "ĠReport": 6842,
      "Ġpreviously": 6843,
      "Ġcatalytic": 6844,
      "ĠNumber": 6845,
      "Ġvarying": 6846,
      "Ġdeterminant": 6847,
      "Ġturned": 6848,
      "Ġinï¬Ĥu": 6849,
      "Ġremarkable": 6850,
      "ĠHutter": 6851,
      "Ġancest": 6852,
      "ĠHeteroatom": 6853,
      "07": 6854,
      "91": 6855,
      "97": 6856,
      "UM": 6857,
      "ble": 6858,
      "dz": 6859,
      "fï¬ģ": 6860,
      "iver": 6861,
      "ln": 6862,
      "tings": 6863,
      "uary": 6864,
      "Î¾": 6865,
      "Ġ#": 6866,
      "requ": 6867,
      "Ġsil": 6868,
      "Ġfish": 6869,
      "Ġbra": 6870,
      "vex": 6871,
      "urally": 6872,
      "ĠMoh": 6873,
      "using": 6874,
      "ighth": 6875,
      "Ġxn": 6876,
      "ĠKerma": 6877,
      "Ġrepul": 6878,
      "Ġsolved": 6879,
      "Ġindigen": 6880,
      "Ġearning": 6881,
      "ĠTime": 6882,
      "Ġacts": 6883,
      "Ġprovince": 6884,
      "Ġspecified": 6885,
      "ĠConstant": 6886,
      "Ġconsiderably": 6887,
      "olof": 6888,
      "Ġafford": 6889,
      "Ġgrowing": 6890,
      "Ġsubsp": 6891,
      "Ġpassed": 6892,
      "Ġsalts": 6893,
      "Ġcircle": 6894,
      "anese": 6895,
      "Ġdeï¬ģnite": 6896,
      "Ġcrude": 6897,
      "Ġsettlements": 6898,
      "Ġlinked": 6899,
      "hydroxy": 6900,
      "Ġsemi": 6901,
      "Ġstereocent": 6902,
      "Ġallyl": 6903,
      "ĠPhoenician": 6904,
      "Ġincorpor": 6905,
      "alogy": 6906,
      "Ġappeared": 6907,
      "Ġlinguistic": 6908,
      "Ġadequate": 6909,
      "ĠNevertheless": 6910,
      "Ġaqueous": 6911,
      "Ġexpendit": 6912,
      ")).": 6913,
      "IM": 6914,
      "ault": 6915,
      "ience": 6916,
      "zana": 6917,
      "Ġtask": 6918,
      "rence": 6919,
      "Ġcup": 6920,
      "Ġcalls": 6921,
      "itual": 6922,
      "Ġpun": 6923,
      "Ġwon": 6924,
      "Ġwaves": 6925,
      "lement": 6926,
      "left": 6927,
      "ĠSC": 6928,
      "Ġstatistics": 6929,
      "Ġask": 6930,
      "ĠEduc": 6931,
      "ĠMetal": 6932,
      "ĠLore": 6933,
      "ĠWrite": 6934,
      "ĠDist": 6935,
      "ĠInit": 6936,
      "Ġkil": 6937,
      "Ġunre": 6938,
      "Ġunion": 6939,
      "ochem": 6940,
      "Ġequality": 6941,
      "Ġcontrad": 6942,
      "Ġï¬ģve": 6943,
      "Ġinteract": 6944,
      "ĠâĨ": 6945,
      "organ": 6946,
      "anga": 6947,
      "Ġprev": 6948,
      "Ġmanagement": 6949,
      "ĠYet": 6950,
      "Ġfeel": 6951,
      "ĠLibya": 6952,
      "Ġimported": 6953,
      "Ġupd": 6954,
      "Ġ130": 6955,
      "Ġcapable": 6956,
      "Ġobserve": 6957,
      "Ġdiï¬Ģer": 6958,
      "Ġmetric": 6959,
      "ĠLeast": 6960,
      "Ġcomputational": 6961,
      "1966": 6962,
      "Ġï¬ģelds": 6963,
      "Ġspectroscop": 6964,
      "Ġeï¬Ģects": 6965,
      "Ġcoastal": 6966,
      "Ġstructural": 6967,
      "Ġexpanded": 6968,
      "ĠIdem": 6969,
      "LUMO": 6970,
      "Ġcultivation": 6971,
      "osphet": 6972,
      "Ġrecipient": 6973,
      "Ġchallenges": 6974,
      "ĠSonghai": 6975,
      "uttg": 6976,
      "bu": 6977,
      "ca": 6978,
      "ham": 6979,
      "pz": 6980,
      "west": 6981,
      "ĠĈ": 6982,
      "Ġaim": 6983,
      "orge": 6984,
      "ancing": 6985,
      "Ġbad": 6986,
      "ĠTr": 6987,
      "ĠAromatic": 6988,
      "ĠSID": 6989,
      "ĠPred": 6990,
      "ayer": 6991,
      "ĠBi": 6992,
      "ĠLake": 6993,
      "pline": 6994,
      "Ġcompany": 6995,
      "Ġ1950": 6996,
      "plete": 6997,
      "ariant": 6998,
      "Ġforming": 6999,
      "development": 7000,
      "ĠVal": 7001,
      "Ġ81": 7002,
      "Ġtrack": 7003,
      "Ġraise": 7004,
      "1159": 7005,
      "Ġdecades": 7006,
      "Ġeigenkets": 7007,
      "Ġlocally": 7008,
      "Ġ171": 7009,
      "omentum": 7010,
      "Ġlimits": 7011,
      "Ġ1961": 7012,
      "Ġresemb": 7013,
      "boration": 7014,
      "Ġstandards": 7015,
      "Ġoffers": 7016,
      "Ġpairwise": 7017,
      "Ġ292": 7018,
      "1968": 7019,
      "Ġskis": 7020,
      "Ġaccounts": 7021,
      "chers": 7022,
      "Ġactivated": 7023,
      "Ġefficiency": 7024,
      "Ġpaths": 7025,
      "ĠTraining": 7026,
      "Ġloans": 7027,
      "Ġphotons": 7028,
      "aphosphet": 7029,
      "Ġtitle": 7030,
      "Ġinfrast": 7031,
      "ĠNucleophiles": 7032,
      "ĠFurthermore": 7033,
      "Ġdebt": 7034,
      "selective": 7035,
      "ĠMDGs": 7036,
      "ĠMoham": 7037,
      "BH": 7038,
      "enne": 7039,
      "Ġcam": 7040,
      "arding": 7041,
      "ici": 7042,
      "Ġdimensional": 7043,
      "Ġ(âĢľ": 7044,
      "sts": 7045,
      "ĠCal": 7046,
      "Ġonto": 7047,
      "uming": 7048,
      "ĠMass": 7049,
      "ĠMARS": 7050,
      "ĠBenef": 7051,
      "ĠNations": 7052,
      "istically": 7053,
      "ading": 7054,
      "ĠLog": 7055,
      "ĠWol": 7056,
      "ĠWitt": 7057,
      "ĠDen": 7058,
      "ouncil": 7059,
      "ĠĠĠ": 7060,
      "Ġenh": 7061,
      "Ġunf": 7062,
      "Ġintu": 7063,
      "Ġspan": 7064,
      "ĠKal": 7065,
      "ĠKar": 7066,
      "Ġï¬ģg": 7067,
      "Ġmeant": 7068,
      "Ġcurv": 7069,
      "Ġdisapp": 7070,
      "Ġ97": 7071,
      "negative": 7072,
      "iley": 7073,
      "ĠProgram": 7074,
      "ĠUnsupervised": 7075,
      "ĠCompon": 7076,
      "ologie": 7077,
      "Ġethene": 7078,
      "ĠÎ±i": 7079,
      "ilyl": 7080,
      "Ġgreen": 7081,
      "Ġprocesses": 7082,
      "1969": 7083,
      "Ġhalides": 7084,
      "Ġbehind": 7085,
      "Ġglass": 7086,
      "Ġmedical": 7087,
      "Ġcomparable": 7088,
      "ĠGeorg": 7089,
      "Ġcriteria": 7090,
      "Ġordinary": 7091,
      "Ġannual": 7092,
      "Ġdecline": 7093,
      "Ġregioselectivity": 7094,
      "Ġversus": 7095,
      "Ġcandidate": 7096,
      "Ġscarce": 7097,
      "ĠSociety": 7098,
      "ĠMuslim": 7099,
      "Ġsurprising": 7100,
      "Ġalleviation": 7101,
      "ĠStrategy": 7102,
      "parametric": 7103,
      "uttgart": 7104,
      "96": 7105,
      "SN": 7106,
      "aur": 7107,
      "because": 7108,
      "buk": 7109,
      "eh": 7110,
      "ipp": 7111,
      "uel": 7112,
      "wan": 7113,
      "}.": 7114,
      "rene": 7115,
      "Ġsodium": 7116,
      "ĠTax": 7117,
      "Ġ(âĢĶ": 7118,
      "ĠAT": 7119,
      "ster": 7120,
      "ĠSon": 7121,
      "ĠCram": 7122,
      "ulis": 7123,
      "Ġconv": 7124,
      "ĠMax": 7125,
      "ĠBa": 7126,
      "ĠBorn": 7127,
      "Ġrational": 7128,
      "employ": 7129,
      "Ġacceler": 7130,
      "ĠKa": 7131,
      "Ġquot": 7132,
      "Ġ107": 7133,
      "Ġrelief": 7134,
      "Ġrose": 7135,
      "Ġschem": 7136,
      "Ġattacks": 7137,
      "oyal": 7138,
      "Ġalkene": 7139,
      "Ġserved": 7140,
      "Ġangles": 7141,
      "Ġinterests": 7142,
      "flict": 7143,
      "Ġkets": 7144,
      "Ġvert": 7145,
      "Ġgreatly": 7146,
      "Ġstrategic": 7147,
      "plicity": 7148,
      "Ġsmoother": 7149,
      "Ġcollap": 7150,
      "BuLi": 7151,
      "Ġfunerary": 7152,
      "Ġarchaeology": 7153,
      "Ġcarefully": 7154,
      "Ġconstrained": 7155,
      "Ġordered": 7156,
      "ĠReductions": 7157,
      "Ġdestro": 7158,
      "useum": 7159,
      "Ġaccurate": 7160,
      "Ġvillage": 7161,
      "Afrique": 7162,
      "Ġstraightforward": 7163,
      "Ġrevealed": 7164,
      "ĠClearly": 7165,
      "Ġvelocity": 7166,
      "Ġsovereign": 7167,
      "ĠRegularization": 7168,
      "ĠWittig": 7169,
      "buktu": 7170,
      "AK": 7171,
      "Re": 7172,
      "cav": 7173,
      "ho": 7174,
      "time": 7175,
      "ĠĚ": 7176,
      "Ġtro": 7177,
      "heimer": 7178,
      "inium": 7179,
      "Ġsel": 7180,
      "Ġcart": 7181,
      "anch": 7182,
      "Ġmas": 7183,
      "ĠdÏĦ": 7184,
      "oum": 7185,
      "ima": 7186,
      "ĠCap": 7187,
      "ĠCambridge": 7188,
      "Ġforced": 7189,
      "ĠRo": 7190,
      "ĠRob": 7191,
      "ĠHCl": 7192,
      "Ġvac": 7193,
      "Ġvibration": 7194,
      "ĠNor": 7195,
      "ĠNEt": 7196,
      "ivities": 7197,
      "ĠWolof": 7198,
      "Ġnotion": 7199,
      "ĠKE": 7200,
      "Ġabund": 7201,
      "Ġjour": 7202,
      "Ġ84": 7203,
      "Ġ103": 7204,
      "Ġimpose": 7205,
      "Ġroad": 7206,
      "ney": 7207,
      "Ġassist": 7208,
      "Ġassert": 7209,
      "Ġpeas": 7210,
      "ĠSelect": 7211,
      "ĠAlCl": 7212,
      "ĠWhich": 7213,
      "Ġperiodic": 7214,
      "Ã©s": 7215,
      "ernels": 7216,
      "Ġ1963": 7217,
      "Ġshifted": 7218,
      "Ġassociation": 7219,
      "Ġalkylating": 7220,
      "airo": 7221,
      "Ġrelationships": 7222,
      "Ġmotions": 7223,
      "Ġcorrelations": 7224,
      "ĠAssess": 7225,
      "Ġconsisting": 7226,
      "Ġreader": 7227,
      "Ġdefe": 7228,
      "Ġburden": 7229,
      "ĠMalagasy": 7230,
      "Ġpastoral": 7231,
      "Ġconcentrated": 7232,
      "Ġsimplest": 7233,
      "Ġparticipants": 7234,
      "Ġmigration": 7235,
      "Ġmachines": 7236,
      "Ġdeterminants": 7237,
      "ĠPolicy": 7238,
      "Ġindigenous": 7239,
      "New": 7240,
      "PP": 7241,
      "bed": 7242,
      "brid": 7243,
      "cou": 7244,
      "loss": 7245,
      "mpos": 7246,
      "tes": 7247,
      "yne": 7248,
      "Ġtends": 7249,
      "reed": 7250,
      "Ġsand": 7251,
      "anone": 7252,
      "Ġanalogy": 7253,
      "Ġft": 7254,
      "Ġfem": 7255,
      "icians": 7256,
      "Ġmag": 7257,
      "ĠTrost": 7258,
      "stein": 7259,
      "ĠColl": 7260,
      "ĠCross": 7261,
      "uration": 7262,
      "amples": 7263,
      "Ġstel": 7264,
      "ĠRet": 7265,
      "gew": 7266,
      "ĠLar": 7267,
      "ï¬ģtting": 7268,
      "Ġchanging": 7269,
      "Ġ1952": 7270,
      "Ġspir": 7271,
      "ĠKe": 7272,
      "ĠJz": 7273,
      "ĠVols": 7274,
      "avig": 7275,
      "avings": 7276,
      "Ġ88": 7277,
      "Ġ101": 7278,
      "Ġrelates": 7279,
      "enda": 7280,
      "ĠStill": 7281,
      "Ġvaried": 7282,
      "1158": 7283,
      "ĠLibyan": 7284,
      "elled": 7285,
      "ĠCommission": 7286,
      "Ġesc": 7287,
      "Ġsignal": 7288,
      "Ġleadership": 7289,
      "Ġclean": 7290,
      "ĠÃł": 7291,
      "Ġ1974": 7292,
      "Ġowners": 7293,
      "Ġcycloadditions": 7294,
      "Ġalkylation": 7295,
      "Ġincreasingly": 7296,
      "Ġopin": 7297,
      "exp": 7298,
      "Ġinfluences": 7299,
      "Ġeï¬Ģective": 7300,
      "Ġmoved": 7301,
      "Ġdisplace": 7302,
      "Ġriding": 7303,
      "Ġconsequences": 7304,
      "Ġdeprotonation": 7305,
      "Ġmanufacture": 7306,
      "Ġimagine": 7307,
      "Ġincentive": 7308,
      "ĠByzantine": 7309,
      "Ġsatisï¬ģes": 7310,
      "ĠRevenue": 7311,
      "ĠEnergy": 7312,
      "ĠFrench": 7313,
      "NING": 7314,
      "chen": 7315,
      "gat": 7316,
      "met": 7317,
      "xn": 7318,
      "hetic": 7319,
      "rep": 7320,
      "onate": 7321,
      "Ġsizes": 7322,
      "enari": 7323,
      "Ġcell": 7324,
      "Ġcredit": 7325,
      "isure": 7326,
      "Ġwins": 7327,
      "Ġinn": 7328,
      "Ġbat": 7329,
      "Ġbis": 7330,
      "Ġthick": 7331,
      "Ġ110": 7332,
      "ĠSic": 7333,
      "section": 7334,
      "ili": 7335,
      "Ġalgebra": 7336,
      "Ġsuï¬ĥcient": 7337,
      "Ġkn": 7338,
      "Ġenable": 7339,
      "ĠâĪĴâĪŀ": 7340,
      "ocratic": 7341,
      "ĠThree": 7342,
      "Ġproducers": 7343,
      "Ġquint": 7344,
      "ribe": 7345,
      "Ġdiet": 7346,
      "Ġevident": 7347,
      "cles": 7348,
      "Ġroom": 7349,
      "oxonium": 7350,
      "ĠReferences": 7351,
      "Ġscore": 7352,
      "Ġscript": 7353,
      "Ġscattered": 7354,
      "Ġsold": 7355,
      "Ġprison": 7356,
      "Ġ172": 7357,
      "ordinate": 7358,
      "ĠDeï¬ģn": 7359,
      "ĠAtom": 7360,
      "Ġsimilarity": 7361,
      "ĠHealth": 7362,
      "force": 7363,
      "Ġskills": 7364,
      "Ġintroduce": 7365,
      "Ġmechanisms": 7366,
      "Ġseparation": 7367,
      "Ġcontrols": 7368,
      "Ġprimarily": 7369,
      "Ġpurely": 7370,
      "spe": 7371,
      "Ġgeometric": 7372,
      "ĠImport": 7373,
      "cyclohex": 7374,
      "ĠDonors": 7375,
      "Ġelsewhere": 7376,
      "Ġcampaign": 7377,
      "Ġneutral": 7378,
      "Ġ..................................................................................................................": 7379,
      "imbab": 7380,
      "Ġsurrounding": 7381,
      "ĠMarkov": 7382,
      "Ġcontemporary": 7383,
      "ĠCoulomb": 7384,
      "MC": 7385,
      "Nu": 7386,
      "[,": 7387,
      "determ": 7388,
      "fact": 7389,
      "ja": 7390,
      "late": 7391,
      "mes": 7392,
      "Î³": 7393,
      "onical": 7394,
      "aline": 7395,
      "Ġbronze": 7396,
      "arian": 7397,
      "Ġmil": 7398,
      "Ġded": 7399,
      "Ġdrug": 7400,
      "Ġles": 7401,
      "ĠSen": 7402,
      "Ġgi": 7403,
      "amant": 7404,
      "Ġstrug": 7405,
      "ĠPoly": 7406,
      "ĠRa": 7407,
      "ĠRich": 7408,
      "ĠHart": 7409,
      "Ġvoy": 7410,
      "Ġvessel": 7411,
      "ĠNR": 7412,
      "Ġxj": 7413,
      "Ġ1957": 7414,
      "ĠThom": 7415,
      "uding": 7416,
      "Ġsubsc": 7417,
      "Ġarrange": 7418,
      "ĠVan": 7419,
      "Ġ98": 7420,
      "Ġ106": 7421,
      "ĠStructure": 7422,
      "Ġroot": 7423,
      "Ġpointed": 7424,
      "Ġraised": 7425,
      "oxides": 7426,
      "Ġanything": 7427,
      "ĠProduction": 7428,
      "Ġspecify": 7429,
      "Ġslave": 7430,
      "Î²j": 7431,
      "ĠClust": 7432,
      "Ġblocks": 7433,
      "Ġcultures": 7434,
      "ĠMarx": 7435,
      "Ġketene": 7436,
      "Ġended": 7437,
      "Ġeasier": 7438,
      "1965": 7439,
      "ĠPlot": 7440,
      "ART": 7441,
      "ARNING": 7442,
      "Ġspeaking": 7443,
      "Ġextension": 7444,
      "ydrides": 7445,
      "Ġdevi": 7446,
      "Ġolefination": 7447,
      "Ġinvestment": 7448,
      "Ġbromide": 7449,
      "Ġdriving": 7450,
      "ĠAmerica": 7451,
      "Ġprotonated": 7452,
      "ĠTransition": 7453,
      "ĠÇ«ijk": 7454,
      "Ġpatterns": 7455,
      "Ġaccuracy": 7456,
      "Ġitems": 7457,
      "Ġtrajectories": 7458,
      "Ġsimultaneously": 7459,
      "ieme": 7460,
      "ĠLEARNING": 7461,
      "ĠRamses": 7462,
      "ĠRoadway": 7463,
      "ĠCompetition": 7464,
      "Ġcurvature": 7465,
      "ĠKEY": 7466,
      "mposium": 7467,
      "ĠDeï¬ģnition": 7468,
      "imbabwe": 7469,
      "JEC": 7470,
      "SC": 7471,
      "rd": 7472,
      "vi": 7473,
      "zation": 7474,
      "income": 7475,
      "Ġsort": 7476,
      "Ġmix": 7477,
      "Ġdans": 7478,
      "Ġec": 7479,
      "Ġliqu": 7480,
      "igm": 7481,
      "ĠCI": 7482,
      "ĠCN": 7483,
      "ĠPet": 7484,
      "ĠPract": 7485,
      "ĠMot": 7486,
      "ĠFl": 7487,
      "term": 7488,
      "ĠNat": 7489,
      "Ġru": 7490,
      "ĠDA": 7491,
      "ĠIns": 7492,
      "ĠInstitute": 7493,
      "ĠGDP": 7494,
      "Ġnotice": 7495,
      "ĠxT": 7496,
      "Ġleaves": 7497,
      "ĠThieme": 7498,
      "Ġabstract": 7499,
      "Ġpartner": 7500,
      "Ġregulation": 7501,
      "Ġoblig": 7502,
      "Ġtrading": 7503,
      "ĠStuttgart": 7504,
      "ĠZZ": 7505,
      "Ġ121": 7506,
      "Ġcommute": 7507,
      "ĠTimbuktu": 7508,
      "ĠChar": 7509,
      "Ġï£«": 7510,
      "Ġï£¸": 7511,
      "Ġï£Ń": 7512,
      "Ġcharges": 7513,
      "ĠAdulis": 7514,
      "Ġorigins": 7515,
      "ophile": 7516,
      "Ġinduced": 7517,
      "Ġconsume": 7518,
      "Ġsimilarly": 7519,
      "Ġ.........................................": 7520,
      "ĠProbability": 7521,
      "ĠLiAl": 7522,
      "Ġrotations": 7523,
      "Ġinsurance": 7524,
      "Ġ606": 7525,
      "standing": 7526,
      "Ġsubsy": 7527,
      "Ġmedium": 7528,
      "ĠEtO": 7529,
      "Ġacetal": 7530,
      "Ġeliminate": 7531,
      "Ġversions": 7532,
      "Ġeventually": 7533,
      "Ġfigures": 7534,
      "Ġfindings": 7535,
      "matrix": 7536,
      "ĠDavid": 7537,
      "Ġemphasis": 7538,
      "weighted": 7539,
      "TIVES": 7540,
      "ĠLatin": 7541,
      "11570": 7542,
      "Ġprosper": 7543,
      "ĠPopulation": 7544,
      "ĠMauretania": 7545,
      "Ġzeroth": 7546,
      "ĠMohammed": 7547,
      "Houb": 7548,
      "UC": 7549,
      "kin": 7550,
      "sb": 7551,
      "van": 7552,
      "Ġcounter": 7553,
      "ĠAp": 7554,
      "ĠAir": 7555,
      "stabilized": 7556,
      "Ġlact": 7557,
      "iman": 7558,
      "Ġsteric": 7559,
      "ĠEp": 7560,
      "ĠEzana": 7561,
      "Ġ329": 7562,
      "ĠFact": 7563,
      "Ġwhom": 7564,
      "istence": 7565,
      "ĠWiley": 7566,
      "ibly": 7567,
      "ĠInte": 7568,
      "Ġshaded": 7569,
      "Ġyoung": 7570,
      "Ġ1959": 7571,
      "ĠÎ½": 7572,
      "ĠJe": 7573,
      "Ġcontributed": 7574,
      "Ġapples": 7575,
      "Ġintermolecular": 7576,
      "ĠWein": 7577,
      "Ġraw": 7578,
      "ĠZimbabwe": 7579,
      "Ġgeneration": 7580,
      "ĠYe": 7581,
      "ĠËĨÎ±": 7582,
      "Ġï£¶": 7583,
      "Ġchoosing": 7584,
      "ĠSupport": 7585,
      "Ġdescribing": 7586,
      "herent": 7587,
      "2008": 7588,
      "Ġperspective": 7589,
      "Ġ1983": 7590,
      "ĠHex": 7591,
      "ĠPlan": 7592,
      "ĠSubst": 7593,
      "Ġoriginally": 7594,
      "Ġconcave": 7595,
      "Ġsuccessive": 7596,
      "Ġgeographical": 7597,
      "Ġmedian": 7598,
      "Ġcareful": 7599,
      "Ġborder": 7600,
      "Ġpromoting": 7601,
      "Ġstatistic": 7602,
      "Ġregardless": 7603,
      "Ġvisit": 7604,
      "Ġ.....................": 7605,
      "Ġfacilit": 7606,
      "Ġinev": 7607,
      "Afric": 7608,
      "Ġexpedition": 7609,
      "ĠTanzania": 7610,
      "Ġsnowboards": 7611,
      "ĠAlternatively": 7612,
      "Ġlicense": 7613,
      "ĠOBJEC": 7614,
      "Ġstrugg": 7615,
      "Houben": 7616,
      "BM": 7617,
      "GR": 7618,
      "cription": 7619,
      "ei": 7620,
      "face": 7621,
      "ht": 7622,
      "hyd": 7623,
      "norm": 7624,
      "Îĺ": 7625,
      "Ġaz": 7626,
      "Ġcigarett": 7627,
      "ĠTAK": 7628,
      "Ġlibr": 7629,
      "otep": 7630,
      "ĠCsp": 7631,
      "Ġgy": 7632,
      "Ġgames": 7633,
      "olic": 7634,
      "Ġconsequently": 7635,
      "âĪĨ": 7636,
      "Ġexercise": 7637,
      "ĠDu": 7638,
      "Ġ414": 7639,
      "erson": 7640,
      "plot": 7641,
      "ocracy": 7642,
      "ĠThose": 7643,
      "Ġperman": 7644,
      "ogram": 7645,
      "Ġclub": 7646,
      "Ġappre": 7647,
      "ĠVerc": 7648,
      "outter": 7649,
      "Ġtraditions": 7650,
      "Ġamide": 7651,
      "Ġemail": 7652,
      "Ġreductions": 7653,
      "Ġ2013": 7654,
      "Ġphil": 7655,
      "Ġ189": 7656,
      "Ġlabour": 7657,
      "ributions": 7658,
      "ĠAryl": 7659,
      "Ġcapitalist": 7660,
      "Ġorganized": 7661,
      "Ġcharacters": 7662,
      "Ġhands": 7663,
      "Ġwrong": 7664,
      "Ġstarts": 7665,
      "Ġbackground": 7666,
      "ĠPlant": 7667,
      "1971": 7668,
      "1973": 7669,
      "1974": 7670,
      "Ġstereoselectivity": 7671,
      "Ġreceives": 7672,
      "Ġdeviation": 7673,
      "ĠAcme": 7674,
      "ĠAppendix": 7675,
      "ĠAlkyl": 7676,
      "Ġeliminated": 7677,
      "ĠIntermedi": 7678,
      "haust": 7679,
      "Ġconquest": 7680,
      "Ġcontribute": 7681,
      "EAWAY": 7682,
      "ĠCanad": 7683,
      "Ġattractive": 7684,
      "Ġmultiplying": 7685,
      "ĠLibyans": 7686,
      "ĠSVM": 7687,
      "Ġsubspace": 7688,
      "ĠTAKEAWAY": 7689,
      "ĠTAKEAWAYS": 7690,
      "BA": 7691,
      "Rk": 7692,
      "UR": 7693,
      "blem": 7694,
      "cor": 7695,
      "fit": 7696,
      "pread": 7697,
      "top": 7698,
      "xyl": 7699,
      "},": 7700,
      "Ã¯": 7701,
      "erg": 7702,
      "Ġsan": 7703,
      "oria": 7704,
      "anuary": 7705,
      "Ġwides": 7706,
      "Ġfri": 7707,
      "ĠTem": 7708,
      "Ġhindered": 7709,
      "ĠApart": 7710,
      "eteenth": 7711,
      "ĠSec": 7712,
      "ĠSources": 7713,
      "ils": 7714,
      "cel": 7715,
      "unis": 7716,
      "ĠRem": 7717,
      "ĠOlefin": 7718,
      "ĠFour": 7719,
      "Ġvou": 7720,
      "ĠLag": 7721,
      "opent": 7722,
      "rick": 7723,
      "ĠDar": 7724,
      "ichi": 7725,
      "ĠGreen": 7726,
      "Ġregister": 7727,
      "Ġcoinc": 7728,
      "Ġsimulations": 7729,
      "ĠËĨÎ¸": 7730,
      "Ġcarban": 7731,
      "Ġphon": 7732,
      "Ġproved": 7733,
      "Ġ151": 7734,
      "obor": 7735,
      "Ġpropos": 7736,
      "ĠArt": 7737,
      "Ġinduce": 7738,
      "Ġleaders": 7739,
      "Ġtrial": 7740,
      "Ġneglig": 7741,
      "âĪĹ,": 7742,
      "Ġargued": 7743,
      "Ġlands": 7744,
      "ĠPeriod": 7745,
      "Ġempirical": 7746,
      "Ġthinking": 7747,
      "Ġhunters": 7748,
      "Ġdealing": 7749,
      "ĠSmo": 7750,
      "ĠMatara": 7751,
      "Ġundergoes": 7752,
      "Ġpieces": 7753,
      "ĠNumid": 7754,
      "ĠCompute": 7755,
      "COLON": 7756,
      "Ġfrontier": 7757,
      "Ġrectangular": 7758,
      "ĠEvidence": 7759,
      "Ġspeciï¬ģc": 7760,
      "Ġnitrogen": 7761,
      "Ġbegins": 7762,
      "ĠBonds": 7763,
      "Ġroughly": 7764,
      "stituent": 7765,
      "containing": 7766,
      "Ġpassengers": 7767,
      "written": 7768,
      "Ġinfrastructure": 7769,
      "ĠIntegr": 7770,
      "ĠVercoutter": 7771,
      "Ġwidespread": 7772,
      "BN": 7773,
      "ders": 7774,
      "greg": 7775,
      "hy": 7776,
      "sy": 7777,
      "zz": 7778,
      "Ġ~": 7779,
      "Ġsion": 7780,
      "Ġcore": 7781,
      "Ġcations": 7782,
      "itably": 7783,
      "ala": 7784,
      "Ġtold": 7785,
      "Ġnine": 7786,
      "imolecular": 7787,
      "iling": 7788,
      "Ġgains": 7789,
      "ulpt": 7790,
      "Ġstress": 7791,
      "ĠMaxim": 7792,
      "ĠRuss": 7793,
      "ĠBra": 7794,
      "ĠBel": 7795,
      "abatic": 7796,
      "ĠLong": 7797,
      "ĠLoss": 7798,
      "ĠDf": 7799,
      "ĠDoub": 7800,
      "ĠDraw": 7801,
      "this": 7802,
      "ibonding": 7803,
      "ounced": 7804,
      "eman": 7805,
      "acent": 7806,
      "agan": 7807,
      "Ġsparse": 7808,
      "Ġperpend": 7809,
      "Ġplays": 7810,
      "Ġ74": 7811,
      "ĠVar": 7812,
      "ĠAngew": 7813,
      "rupt": 7814,
      "Ġsupposed": 7815,
      "ĠExamples": 7816,
      "ĠCho": 7817,
      "Ġminus": 7818,
      "Ġ160": 7819,
      "Ġdifferential": 7820,
      "Ġcoefficient": 7821,
      "Ġretur": 7822,
      "Ġphysically": 7823,
      "Ġchapters": 7824,
      "1990": 7825,
      "ĠâĨĴâĪŀ": 7826,
      "ĠCarboxylic": 7827,
      "Ġmixtures": 7828,
      "uki": 7829,
      "ĠContin": 7830,
      "Ġdivine": 7831,
      "ĠResiduals": 7832,
      "Ġplausibility": 7833,
      "Ġlayer": 7834,
      "Ġconventional": 7835,
      "Ġultimately": 7836,
      "Ġozon": 7837,
      "Ġvertices": 7838,
      "ĠOBJECTIVES": 7839,
      "Ġperpendicular": 7840,
      "Roman": 7841,
      "TO": 7842,
      "ele": 7843,
      "savings": 7844,
      "inac": 7845,
      "Ġsen": 7846,
      "isl": 7847,
      "Ġwants": 7848,
      "arity": 7849,
      "Ġmob": 7850,
      "Ġdict": 7851,
      "Ġlatt": 7852,
      "ĠSab": 7853,
      "Ġconce": 7854,
      "ĠPunt": 7855,
      "âĪĩ": 7856,
      "ĠMagh": 7857,
      "ĠRu": 7858,
      "ĠRprim": 7859,
      "ĠHydride": 7860,
      "ĠDE": 7861,
      "ĠGra": 7862,
      "ĠGames": 7863,
      "Ġ600": 7864,
      "aka": 7865,
      "ague": 7866,
      "plex": 7867,
      "Ġclimate": 7868,
      "Ġjack": 7869,
      "Ġ96": 7870,
      "Ġstatements": 7871,
      "Ġzone": 7872,
      "Ġdecided": 7873,
      "ĠAlp": 7874,
      "Ġ203": 7875,
      "ĠChange": 7876,
      "Ġattributed": 7877,
      "Ġestimating": 7878,
      "ĠMeOH": 7879,
      "Ġsubstitutes": 7880,
      "Ġrepresentative": 7881,
      "Ġregional": 7882,
      "Ġ1975": 7883,
      "Ġreactants": 7884,
      "Ġflo": 7885,
      "Ġrandomly": 7886,
      "Ġseparately": 7887,
      "Ġkept": 7888,
      "Ġlosses": 7889,
      "Ġpasses": 7890,
      "ĠHOMO": 7891,
      "Ġmonths": 7892,
      "Ġaccessible": 7893,
      "Ġreflected": 7894,
      "Ġtranslation": 7895,
      "ĠINTE": 7896,
      "Ġoptimization": 7897,
      "ĠEmpire": 7898,
      "Ġtunnel": 7899,
      "Ġrectangle": 7900,
      "oooooooo": 7901,
      "Ġcandidates": 7902,
      "ĠSlater": 7903,
      "Ġparametrization": 7904,
      "Ġtrend": 7905,
      "ĠFaras": 7906,
      "Ġchurch": 7907,
      "Ġthreshold": 7908,
      "Ġdisease": 7909,
      "Ġstelae": 7910,
      "ĠLiAlH": 7911,
      "inacol": 7912,
      "?âĢĿ": 7913,
      "OM": 7914,
      "cb": 7915,
      "draw": 7916,
      "gory": 7917,
      "then": 7918,
      "vest": 7919,
      "Îĵ": 7920,
      "Ġid": 7921,
      "inn": 7922,
      "enry": 7923,
      "itness": 7924,
      "Ġpiz": 7925,
      "Ġmess": 7926,
      "Ġddpi": 7927,
      "Ġell": 7928,
      "ĠTom": 7929,
      "ĠTyp": 7930,
      "ĠTake": 7931,
      "Ġhope": 7932,
      "stone": 7933,
      "Ġlooks": 7934,
      "ĠSw": 7935,
      "ĠSometimes": 7936,
      "Ġbeads": 7937,
      "ĠCV": 7938,
      "Ġforb": 7939,
      "olithium": 7940,
      "Ġproto": 7941,
      "Ġconvex": 7942,
      "ĠHor": 7943,
      "ĠHeck": 7944,
      "ĠBasis": 7945,
      "ĠNi": 7946,
      "Ġatten": 7947,
      "dule": 7948,
      "Ġseason": 7949,
      "ï¬ģne": 7950,
      "apers": 7951,
      "Ġshares": 7952,
      "ĠUK": 7953,
      "ĠUSA": 7954,
      "akers": 7955,
      "ĠThrough": 7956,
      "ĠÎ·": 7957,
      "ĠZh": 7958,
      "Ġsimulated": 7959,
      "Ġsolvent": 7960,
      "Ġworker": 7961,
      "Ġcommut": 7962,
      "fined": 7963,
      "Ġentropy": 7964,
      "ĠĀā": 7965,
      "Ġslopes": 7966,
      "Ġ176": 7967,
      "Ġwavelength": 7968,
      "Ġaveraging": 7969,
      "Ġapproximations": 7970,
      "Ġexamined": 7971,
      "apping": 7972,
      ")(-": 7973,
      "Ġfrequent": 7974,
      "Ġstronger": 7975,
      "Ġnormalized": 7976,
      "Ġrequirements": 7977,
      "ĠOrganometallic": 7978,
      "Ġtransformed": 7979,
      "Ġborrow": 7980,
      "Ġsuperior": 7981,
      "Ġracemic": 7982,
      "Ġă-": 7983,
      "Ġattempts": 7984,
      "Ġorders": 7985,
      "Ġcomparisons": 7986,
      "Ġelectrophilic": 7987,
      "Ġtitled": 7988,
      "ĠPeople": 7989,
      "Ġturning": 7990,
      "ĠDavis": 7991,
      "Ġscientific": 7992,
      "Ġheavy": 7993,
      "Ġpreceding": 7994,
      "ĠËĨÎ£": 7995,
      "Weyl": 7996,
      "Ġhorseback": 7997,
      "ĠBakri": 7998,
      "Ġpresumably": 7999,
      "Ġcrystal": 8000,
      "ĠEffects": 8001,
      "Ġenormous": 8002,
      "MD": 8003,
      "ML": 8004,
      "OEt": 8005,
      "ball": 8006,
      "east": 8007,
      "gra": 8008,
      "vol": 8009,
      "Â´": 8010,
      "Ġrom": 8011,
      "oro": 8012,
      "itro": 8013,
      "Ġpays": 8014,
      "ali": 8015,
      "Ġbir": 8016,
      "Ġbanks": 8017,
      "ingly": 8018,
      "ĠTaylor": 8019,
      "Ġhon": 8020,
      "Ġholding": 8021,
      "ĠAh": 8022,
      "ĠAIC": 8023,
      "Ġlinks": 8024,
      "imil": 8025,
      "ĠSaturated": 8026,
      "Ġ219": 8027,
      "Ġbear": 8028,
      "amin": 8029,
      "Ġstore": 8030,
      "ummy": 8031,
      "ĠPos": 8032,
      "ĠMet": 8033,
      "Ġexhaust": 8034,
      "ĠBond": 8035,
      "ĠNG": 8036,
      "Ġcoming": 8037,
      "ĠâĪĿ": 8038,
      "ĠLasso": 8039,
      "Ġknew": 8040,
      "Ġ539": 8041,
      "Ġcontrary": 8042,
      "Ġjth": 8043,
      "ĠVI": 8044,
      "Ġ105": 8045,
      "Ġprepar": 8046,
      "Ġaccum": 8047,
      "ĠSeas": 8048,
      "ĠSupervised": 8049,
      "ishop": 8050,
      "Ġ139": 8051,
      "Ġexpectations": 8052,
      "going": 8053,
      "Ġallowing": 8054,
      "Ġ1973": 8055,
      "Ġminima": 8056,
      "Ġsinglet": 8057,
      "Ġgets": 8058,
      "ĠCarboxyl": 8059,
      "Ġcollisions": 8060,
      "Ġdevoted": 8061,
      "ĠApplic": 8062,
      "Ġsales": 8063,
      "Ġdraws": 8064,
      "Ġpollut": 8065,
      "ĠCurves": 8066,
      "Ġexperienced": 8067,
      "Ġstabilized": 8068,
      "carboxylic": 8069,
      "Ġstrain": 8070,
      "Ġyielded": 8071,
      "Ġparticipation": 8072,
      "ĠStudies": 8073,
      "Ġbelieved": 8074,
      "Ġsymbols": 8075,
      "Ġadopt": 8076,
      "Ġjudge": 8077,
      "ĠVariable": 8078,
      "Ġimperial": 8079,
      "Ġmutual": 8080,
      "Ġhyperplane": 8081,
      "aught": 8082,
      "Ġbagging": 8083,
      "economic": 8084,
      "ĠIbn": 8085,
      "Ġcentroids": 8086,
      "Ġdaily": 8087,
      "Ġpyramid": 8088,
      "Ġsoftware": 8089,
      "Ġcylinder": 8090,
      "ĠAssessment": 8091,
      ".'": 8092,
      "ED": 8093,
      "Ji": 8094,
      "eed": 8095,
      "group": 8096,
      "je": 8097,
      "jm": 8098,
      "kl": 8099,
      "lier": 8100,
      "mod": 8101,
      "rat": 8102,
      "hedule": 8103,
      "Ġ.............": 8104,
      "inity": 8105,
      "Ġcer": 8106,
      "itudes": 8107,
      "icle": 8108,
      "Ġdoll": 8109,
      "ented": 8110,
      "Ġ111": 8111,
      "Ġhair": 8112,
      "Ġlif": 8113,
      "ĠSadi": 8114,
      "ĠCR": 8115,
      "chiral": 8116,
      "Ġassemb": 8117,
      "ĠPP": 8118,
      "ĠPy": 8119,
      "ĠPri": 8120,
      "ĠMas": 8121,
      "ĠHg": 8122,
      "Ġexit": 8123,
      "ĠField": 8124,
      "ĠBur": 8125,
      "ĠNMe": 8126,
      "ĠDan": 8127,
      "ĠDet": 8128,
      "ĠĠĠĊ": 8129,
      "ours": 8130,
      "ĠÎĵ": 8131,
      "Ġadduct": 8132,
      "Ġheat": 8133,
      "Ġtwice": 8134,
      "Ġmodes": 8135,
      "Ġvaluable": 8136,
      "Ġconserv": 8137,
      "ĠAnf": 8138,
      "Ġtraces": 8139,
      "olefin": 8140,
      "Ġresulted": 8141,
      "Ġ122": 8142,
      "Ġ123": 8143,
      "ĠProt": 8144,
      "Ġsoldi": 8145,
      "Ġearned": 8146,
      "Ġoccasion": 8147,
      "pected": 8148,
      "ova": 8149,
      "Ġderivation": 8150,
      "Ġblood": 8151,
      "relation": 8152,
      "Ġcapitalism": 8153,
      "Ġedges": 8154,
      "ashi": 8155,
      "Ġadvanced": 8156,
      "Ġfalling": 8157,
      "Ġsuccession": 8158,
      "Ġpanels": 8159,
      "Ġhelped": 8160,
      "ĠAssume": 8161,
      "Ġpenet": 8162,
      "ĠOxidations": 8163,
      "oester": 8164,
      "Ġ693": 8165,
      "Ġooooo": 8166,
      "Ġdominant": 8167,
      "Ġhardly": 8168,
      "Ġmerch": 8169,
      "CAO": 8170,
      "Ġexclusive": 8171,
      "Ġaccompl": 8172,
      "Ġswit": 8173,
      "Ġcaste": 8174,
      "Ġincentives": 8175,
      "ademic": 8176,
      "Ġnineteenth": 8177,
      "ĠIndonesian": 8178,
      "Ġinferior": 8179,
      "ĠGraphical": 8180,
      "ĠGaramant": 8181,
      "Ġfaith": 8182,
      "Ġexhibit": 8183,
      "ĠEyring": 8184,
      "ĠPaul": 8185,
      "Ġcrucial": 8186,
      "ĠSummary": 8187,
      "ĠEducation": 8188,
      "ĠDAE": 8189,
      "Ġsoldiers": 8190,
      "BC": 8191,
      "LI": 8192,
      "UN": 8193,
      "bur": 8194,
      "lers": 8195,
      "such": 8196,
      "tation": 8197,
      "ĠÃ©": 8198,
      "Ġai": 8199,
      "rearrange": 8200,
      "enistic": 8201,
      "esium": 8202,
      "Ġpick": 8203,
      "ionic": 8204,
      "Ġwall": 8205,
      "icip": 8206,
      "Ġmerc": 8207,
      "ĠdS": 8208,
      "Ġreac": 8209,
      "outh": 8210,
      "struct": 8211,
      "ĠCos": 8212,
      "Ġconflict": 8213,
      "ĠMA": 8214,
      "ĠMem": 8215,
      "ĠRome": 8216,
      "ĠHig": 8217,
      "ĠBus": 8218,
      "ĠBook": 8219,
      "ĠLaw": 8220,
      "ifies": 8221,
      "ifferent": 8222,
      "Ġenables": 8223,
      "Ġintended": 8224,
      "Ġhell": 8225,
      "idean": 8226,
      "Ġinterference": 8227,
      "ecess": 8228,
      "Ġdespite": 8229,
      "Ġemit": 8230,
      "Ġscenari": 8231,
      "Ġbasin": 8232,
      "ĠYl": 8233,
      "ï¬Ģere": 8234,
      "Ġ2014": 8235,
      "Ġimports": 8236,
      "ĠNubians": 8237,
      "Ġsheep": 8238,
      "2005": 8239,
      "Ġantibonding": 8240,
      "Ġrandomized": 8241,
      "Ġpractices": 8242,
      "ĠCompare": 8243,
      "ĠAccra": 8244,
      "Ġalternatives": 8245,
      "Ġhappened": 8246,
      "Ġexception": 8247,
      "Ġdriven": 8248,
      "Ġpenalized": 8249,
      "Ġsigniï¬ģcance": 8250,
      "erlin": 8251,
      "ĠStereoselective": 8252,
      "Ġdemonstrate": 8253,
      "Ġarrival": 8254,
      "Ġnormally": 8255,
      "Ġproï¬ģt": 8256,
      "ĠAnnals": 8257,
      "Ġarchitecture": 8258,
      "ĠBritish": 8259,
      "Ġibid": 8260,
      "Ġavoided": 8261,
      "Ġkilomet": 8262,
      "Ġappreci": 8263,
      "ichiometric": 8264,
      ")!": 8265,
      "Ai": 8266,
      "Group": 8267,
      "MR": 8268,
      "OP": 8269,
      "SF": 8270,
      "VIII": 8271,
      "dis": 8272,
      "lter": 8273,
      "oost": 8274,
      "oï¬Ģ": 8275,
      "prop": 8276,
      "âĨ": 8277,
      "Ġtor": 8278,
      "head": 8279,
      "Ġow": 8280,
      "Ġcf": 8281,
      "Ġcop": 8282,
      "Ġcrafts": 8283,
      "ester": 8284,
      "itations": 8285,
      "Ġwat": 8286,
      "Ġinfl": 8287,
      "Ġfine": 8288,
      "Ġmunic": 8289,
      "ĠTell": 8290,
      "Ġhuge": 8291,
      "Ġiso": 8292,
      "vector": 8293,
      "Ġna": 8294,
      "ĠSing": 8295,
      "Ġ213": 8296,
      "utors": 8297,
      "Ġgene": 8298,
      "chlor": 8299,
      "Ġconstitution": 8300,
      "Ġasym": 8301,
      "ĠElect": 8302,
      "ĠMRP": 8303,
      "ĠOct": 8304,
      "ĠBern": 8305,
      "antly": 8306,
      "ĠâĪĳ": 8307,
      "Ġritual": 8308,
      "Ġcanonical": 8309,
      "Ġleisure": 8310,
      "ĠUg": 8311,
      "ogenic": 8312,
      "Ġcontrolled": 8313,
      "Ġdien": 8314,
      "Ġcurated": 8315,
      "Ġ86": 8316,
      "Ġprem": 8317,
      "ËĨÎ²": 8318,
      "âĢ².": 8319,
      "Ġagreed": 8320,
      "................................................................": 8321,
      "Ġdemands": 8322,
      "Ġsystematic": 8323,
      "Ġcommit": 8324,
      "Ġ114": 8325,
      "Ġremixed": 8326,
      "ynes": 8327,
      "Ġtested": 8328,
      "Ġeleph": 8329,
      "Ġneglect": 8330,
      "Ġ256": 8331,
      "Ġmetall": 8332,
      "Ġeverywhere": 8333,
      "Ġexamining": 8334,
      "2002": 8335,
      "Ġshifting": 8336,
      "Ġadvance": 8337,
      "Ġsituated": 8338,
      "Ġauthored": 8339,
      "Ġxij": 8340,
      "Ġinfluenced": 8341,
      "Ġdefine": 8342,
      "ĠSouthern": 8343,
      "Ġsulfon": 8344,
      "Ġdistinction": 8345,
      "Ġ.........................": 8346,
      "ĠCosts": 8347,
      "Ġestablishment": 8348,
      "ĠPhoenicians": 8349,
      "Ġjobs": 8350,
      "Ġconjugate": 8351,
      "Ġhousing": 8352,
      "Ġmultiplied": 8353,
      "Ġprototypes": 8354,
      "dipolar": 8355,
      "Ġloanable": 8356,
      "HOMO": 8357,
      "ĠElasticity": 8358,
      "Ġrecommend": 8359,
      "ĠMulzer": 8360,
      "aphosphetane": 8361,
      "Ġï¬ģgure": 8362,
      "Ġcollapse": 8363,
      "Ġdestroy": 8364,
      "Ġtroops": 8365,
      "ĠDouble": 8366,
      "Ġlattice": 8367,
      "GAN": 8368,
      "fr": 8369,
      "gro": 8370,
      "hotep": 8371,
      "iating": 8372,
      "ming": 8373,
      "tically": 8374,
      "uly": 8375,
      "|,": 8376,
      "Ġtic": 8377,
      "ĠaT": 8378,
      "esides": 8379,
      "itz": 8380,
      "alt": 8381,
      "Ġbooks": 8382,
      "ico": 8383,
      "icial": 8384,
      "Ġmic": 8385,
      "asible": 8386,
      "oming": 8387,
      "ĠServ": 8388,
      "Ġ216": 8389,
      "ĠCop": 8390,
      "ĠCalc": 8391,
      "ĠCouncil": 8392,
      "idge": 8393,
      "ĠTherm": 8394,
      "Ġstem": 8395,
      "ĠPK": 8396,
      "ĠPark": 8397,
      "ĠEvery": 8398,
      "ĠMary": 8399,
      "ĠFou": 8400,
      "Ġvot": 8401,
      "Ġvote": 8402,
      "ĠNC": 8403,
      "ĠLAR": 8404,
      "Ġrings": 8405,
      "orey": 8406,
      "Ġsections": 8407,
      "izer": 8408,
      "ĠGib": 8409,
      "Ġunsaturated": 8410,
      "asties": 8411,
      "Ġquart": 8412,
      "Ġappoint": 8413,
      "Ġgoals": 8414,
      "1957": 8415,
      "ĠVariance": 8416,
      "Ġconsent": 8417,
      "phosph": 8418,
      "Ġraises": 8419,
      "Ġ125": 8420,
      "Ġsculpt": 8421,
      "ĠâīĪ": 8422,
      "Ġ143": 8423,
      "ĠChanges": 8424,
      "ĠChicago": 8425,
      "Ġ135": 8426,
      "Ġgraves": 8427,
      "Ġgovernance": 8428,
      "Ġmaximizes": 8429,
      "Ġorganolithium": 8430,
      "preme": 8431,
      "Ġ290": 8432,
      "Ġseparating": 8433,
      "Ġhelium": 8434,
      "1999": 8435,
      "Ġaccounting": 8436,
      "Ġevaluating": 8437,
      "Ġsupported": 8438,
      "ĠNotes": 8439,
      "ĠEucl": 8440,
      "Ġfunding": 8441,
      "ĠInterest": 8442,
      "Ġinterpreted": 8443,
      "ĠMonte": 8444,
      "Ġlegisl": 8445,
      "ĠDiscuss": 8446,
      "rewes": 8447,
      "Ġcategory": 8448,
      "ĠQuantum": 8449,
      "Ġvillages": 8450,
      "Ġbureaucracy": 8451,
      "Ġimperfect": 8452,
      "Ġdecorated": 8453,
      "ĠKati": 8454,
      "ĠHelm": 8455,
      "ĠCountries": 8456,
      "Ġsharp": 8457,
      "ĠTrip": 8458,
      "ĠPresident": 8459,
      "Ġinstrument": 8460,
      "ĠIllust": 8461,
      "Ġdeliver": 8462,
      "Ġliquid": 8463,
      "ĠYeha": 8464,
      "ĠSeaside": 8465,
      "BER": 8466,
      "EE": 8467,
      "IZ": 8468,
      "LC": 8469,
      "gi": 8470,
      "ih": 8471,
      "irable": 8472,
      "nam": 8473,
      "rance": 8474,
      "tr": 8475,
      "tri": 8476,
      "year": 8477,
      "zi": 8478,
      "Ġć": 8479,
      "Ġtens": 8480,
      "Ġaf": 8481,
      "Ġsi": 8482,
      "Ġcot": 8483,
      "Ġei": 8484,
      "Ġhabit": 8485,
      "ĠAge": 8486,
      "stood": 8487,
      "Ġalign": 8488,
      "ĠLand": 8489,
      "ĠLCAO": 8490,
      "ĠWall": 8491,
      "ĠDrewes": 8492,
      "Ġsevent": 8493,
      "apted": 8494,
      "ĠGrow": 8495,
      "Ġunemploy": 8496,
      "Ġspok": 8497,
      "ĠJi": 8498,
      "âĢĿ.": 8499,
      "Ġarising": 8500,
      "Ġraising": 8501,
      "101": 8502,
      "Ġsimplicity": 8503,
      "âĢ²âŁ©": 8504,
      "ipment": 8505,
      "ĠYear": 8506,
      "Ġ2011": 8507,
      "Ġradio": 8508,
      "Ġelection": 8509,
      "Ġintegrated": 8510,
      "ĠAtlant": 8511,
      "ĠÃĦ": 8512,
      "Ġhydroboration": 8513,
      "Ġprofile": 8514,
      "ĠĂ-": 8515,
      "Ġeverything": 8516,
      "Ġminimizes": 8517,
      "Ġrealized": 8518,
      "Ġ267": 8519,
      "Ġboat": 8520,
      "Ġconvert": 8521,
      "Ġrandomization": 8522,
      "Ġideal": 8523,
      "ĠPerhaps": 8524,
      "Ġcritic": 8525,
      "ĠNaOH": 8526,
      "Ġcalculated": 8527,
      "Ġimplementing": 8528,
      "Ġselling": 8529,
      "ĠGeorge": 8530,
      "ĠRepublic": 8531,
      "ĠTransform": 8532,
      "Ġrevol": 8533,
      "Ġairline": 8534,
      "Ġconfigurations": 8535,
      "Ġplanning": 8536,
      "Ġruled": 8537,
      "oulti": 8538,
      "Ġrobust": 8539,
      "ĠRelated": 8540,
      "ĠWhether": 8541,
      "Ġcaptured": 8542,
      "ducible": 8543,
      "Ġimplications": 8544,
      "ĠExpress": 8545,
      "ĠGermany": 8546,
      "Ġtrajectory": 8547,
      "Ġmultiply": 8548,
      "Ġbinomial": 8549,
      "Ġdialkyl": 8550,
      "Ġfoot": 8551,
      "Ġtriangle": 8552,
      "ĠDiscriminant": 8553,
      "aphthal": 8554,
      "Ġdiminishing": 8555,
      "Ġopinion": 8556,
      "Ġphilos": 8557,
      ")Â¬": 8558,
      "Un": 8559,
      "qj": 8560,
      "sm": 8561,
      "Ġti": 8562,
      "aldehyde": 8563,
      "Ġhum": 8564,
      "Ġlith": 8565,
      "Ġ215": 8566,
      "Ġ223": 8567,
      "ĠCamps": 8568,
      "Ġgather": 8569,
      "ĠPot": 8570,
      "ĠPapyrus": 8571,
      "ĠEastern": 8572,
      "ĠMel": 8573,
      "ĠHl": 8574,
      "ĠHamm": 8575,
      "Ġexec": 8576,
      "Ġvent": 8577,
      "Ġiteration": 8578,
      "ivated": 8579,
      "ĠWil": 8580,
      "Ġseas": 8581,
      "aines": 8582,
      "Ġspent": 8583,
      "ĠJames": 8584,
      "Ġregulations": 8585,
      "erman": 8586,
      "Ġarist": 8587,
      "ĠÂ¡": 8588,
      "phic": 8589,
      "Ġtransferred": 8590,
      "Ġassimil": 8591,
      "ueen": 8592,
      "Ġrain": 8593,
      "Ġclassically": 8594,
      "oxidation": 8595,
      "Ġmanag": 8596,
      "Ġempt": 8597,
      "teenth": 8598,
      "Ġ129": 8599,
      "iren": 8600,
      "Ġcommutation": 8601,
      "Ġ115": 8602,
      "Ġ118": 8603,
      "ĠComb": 8604,
      "Ġ181": 8605,
      "Ġgrown": 8606,
      "Ġveget": 8607,
      "ologies": 8608,
      "archical": 8609,
      "Ġtrifl": 8610,
      "Ġcoefï¬ģ": 8611,
      "Ġmethodology": 8612,
      "Ġflood": 8613,
      "Ġ1981": 8614,
      "Ġ1988": 8615,
      "posed": 8616,
      "Ġbackward": 8617,
      "ĠSchools": 8618,
      "Ġgetting": 8619,
      "1995": 8620,
      "Ġruns": 8621,
      "umann": 8622,
      "Ġmedic": 8623,
      "Ġcoupled": 8624,
      "Ġpatients": 8625,
      "Ġreadily": 8626,
      "iii": 8627,
      "ĠËĻ": 8628,
      "Ġstatues": 8629,
      "Ġexperiences": 8630,
      "Ġheteroc": 8631,
      "Ġirrig": 8632,
      "rumah": 8633,
      "Ġcorrectly": 8634,
      "Ġvisible": 8635,
      "ĠKushitic": 8636,
      "ĠPartial": 8637,
      "Ġinformed": 8638,
      "ĠORGAN": 8639,
      "umping": 8640,
      "Ġtargets": 8641,
      "ĠPtolemies": 8642,
      "Ġinvestigate": 8643,
      "Ġsubstantially": 8644,
      "Ġconnections": 8645,
      "Ġchallenge": 8646,
      "Ġstereochem": 8647,
      "Ġmaintained": 8648,
      "orbitals": 8649,
      "Ġimplicit": 8650,
      "Ã¼ck": 8651,
      "Ġsufficiently": 8652,
      "Ġencourage": 8653,
      "contin": 8654,
      "Ġhouses": 8655,
      "ITY": 8656,
      "Ġautomatically": 8657,
      "Ġmonotone": 8658,
      "Ġcoding": 8659,
      "ĠEarth": 8660,
      "ĠBetween": 8661,
      "Ġinertia": 8662,
      "Ġarticles": 8663,
      "Ġpermanent": 8664,
      "ĠIntegrated": 8665,
      "Ġmunicip": 8666,
      "ĠUganda": 8667,
      "DR": 8668,
      "VII": 8669,
      "col": 8670,
      "later": 8671,
      "no": 8672,
      "nership": 8673,
      "rt": 8674,
      "Ġtank": 8675,
      "Ġcited": 8676,
      "isher": 8677,
      "Ġbids": 8678,
      "arr": 8679,
      "arat": 8680,
      "Ġlives": 8681,
      "ĠSpr": 8682,
      "seud": 8683,
      "oto": 8684,
      "owski": 8685,
      "ĠMolec": 8686,
      "ĠRate": 8687,
      "ĠHier": 8688,
      "ĠHoff": 8689,
      "ayor": 8690,
      "ĠBae": 8691,
      "irs": 8692,
      "elting": 8693,
      "ĠDr": 8694,
      "ĠDie": 8695,
      "ained": 8696,
      "0000": 8697,
      "ï¬ģt": 8698,
      "illing": 8699,
      "Ġcomposite": 8700,
      "allad": 8701,
      "Ġresolution": 8702,
      "ĠThough": 8703,
      "Ġequipment": 8704,
      "ĠJones": 8705,
      "ĠJew": 8706,
      "Ġconsult": 8707,
      "Ġij": 8708,
      "Ġreliable": 8709,
      "ĠReag": 8710,
      "orders": 8711,
      "Ġmostly": 8712,
      "Ġpredomin": 8713,
      "Ġ136": 8714,
      "Ġremove": 8715,
      "Ġpredicts": 8716,
      "Ġnewly": 8717,
      "Ġcolor": 8718,
      "Ġ185": 8719,
      "Ġconsiderations": 8720,
      "Ġ1964": 8721,
      "Ġindicator": 8722,
      "Ġpreserved": 8723,
      "Ġdomination": 8724,
      "Ġ1984": 8725,
      "Ġ334": 8726,
      "Ġalkylated": 8727,
      "Ġcreation": 8728,
      "Ġtopic": 8729,
      "Ġprotons": 8730,
      "Ġdeviance": 8731,
      "Ġequivalents": 8732,
      "ĠFirms": 8733,
      "Ġrequirement": 8734,
      "Ġsplits": 8735,
      "Ġguide": 8736,
      "Ġdifficulty": 8737,
      "lexible": 8738,
      "ĠMonopoly": 8739,
      "ĠHeter": 8740,
      "Ġdominate": 8741,
      "Ġgained": 8742,
      "Ġruling": 8743,
      "Ġexploitation": 8744,
      "Ġadjustment": 8745,
      "Ġpermutation": 8746,
      "Ġexpeditions": 8747,
      "consist": 8748,
      "half": 8749,
      "Ġtriplet": 8750,
      "Ġbeliefs": 8751,
      "ĠANSWERS": 8752,
      "oltz": 8753,
      "Ġstaff": 8754,
      "Ġmisclassiï¬ģcation": 8755,
      "Ġstereocenter": 8756,
      "ĠWolff": 8757,
      "ĠRichard": 8758,
      "Ġarrangement": 8759,
      "ĠSmoothing": 8760,
      "ĠAlpine": 8761,
      "ĠEuclidean": 8762,
      "960": 8763,
      "Di": 8764,
      "Hydro": 8765,
      "Les": 8766,
      "QU": 8767,
      "bits": 8768,
      "fers": 8769,
      "iabatic": 8770,
      "lu": 8771,
      "light": 8772,
      "lithium": 8773,
      "nes": 8774,
      "pir": 8775,
      "pact": 8776,
      "|.": 8777,
      "Ġic": 8778,
      "Ġith": 8779,
      "Ġtrou": 8780,
      "err": 8781,
      "itors": 8782,
      "Ġwild": 8783,
      "Ġwitness": 8784,
      "Ġfru": 8785,
      "Ġban": 8786,
      "Ġmus": 8787,
      "Ġmist": 8788,
      "Ġmiles": 8789,
      "Ġdam": 8790,
      "leph": 8791,
      "Ġeighth": 8792,
      "asi": 8793,
      "ĠTetrahed": 8794,
      "omy": 8795,
      "ĠAOs": 8796,
      "Ġlad": 8797,
      "ĠCA": 8798,
      "idimensional": 8799,
      "ĠIsis": 8800,
      "Ġconstitute": 8801,
      "ĠHN": 8802,
      "ĠOff": 8803,
      "ĠBush": 8804,
      "iris": 8805,
      "ĠNA": 8806,
      "romagn": 8807,
      "ichlor": 8808,
      "illiger": 8809,
      "Ġships": 8810,
      "Ġ1955": 8811,
      "ĠThird": 8812,
      "Ġhemi": 8813,
      "Ġpartly": 8814,
      "Ġregime": 8815,
      "Ġdisci": 8816,
      "Ġarrows": 8817,
      "ĠVand": 8818,
      "Ġ83": 8819,
      "Ġ109": 8820,
      "forms": 8821,
      "Ġaggreg": 8822,
      "xtet": 8823,
      "tee": 8824,
      "ressive": 8825,
      "1154": 8826,
      "Ġtermin": 8827,
      "ĠËĨÂµ": 8828,
      "Ġcommutes": 8829,
      "Ġwells": 8830,
      "iï¬ģes": 8831,
      "Ġ175": 8832,
      "Ġsums": 8833,
      "Ġcarav": 8834,
      "ĠDef": 8835,
      "Ġrecovered": 8836,
      "sworth": 8837,
      "herers": 8838,
      "ÏĢÇ«": 8839,
      "Ġunitary": 8840,
      "Ġ1987": 8841,
      "Ġdynam": 8842,
      "Ġcontinuity": 8843,
      "Ġexcitation": 8844,
      "Ġadvoc": 8845,
      "ĠArabs": 8846,
      "Ġpassing": 8847,
      "ĠAcid": 8848,
      "Ġsalaries": 8849,
      "Ġlimiting": 8850,
      "Ġethical": 8851,
      "Ġimplemented": 8852,
      "ĠSudanese": 8853,
      "Ġsimpler": 8854,
      "TIONS": 8855,
      "cycloadditions": 8856,
      "Ġseeking": 8857,
      "Ġlisted": 8858,
      "Ġsurvival": 8859,
      "Ġdeprotonated": 8860,
      "Ġspeciï¬ģed": 8861,
      "ĠHaoulti": 8862,
      "Ġadaptive": 8863,
      "ĠUtah": 8864,
      "IBAL": 8865,
      "ĠTopics": 8866,
      "ĠEnglish": 8867,
      "Ġdissimilarity": 8868,
      "ĠWilli": 8869,
      "Ġmonitoring": 8870,
      "ĠMillennium": 8871,
      "Ġscheme": 8872,
      "Ġtunneling": 8873,
      "Ġforbidden": 8874,
      "ĠAnfray": 8875,
      "Ġasympt": 8876,
      "ĠGrowth": 8877,
      "ĠAtlantic": 8878,
      "ET": 8879,
      "band": 8880,
      "bonding": 8881,
      "city": 8882,
      "ga": 8883,
      "two": 8884,
      "xT": 8885,
      "Ã¢": 8886,
      "Ă-": 8887,
      "Ġol": 8888,
      "independent": 8889,
      "Ġthesis": 8890,
      "enylation": 8891,
      "Ġpush": 8892,
      "Ġwa": 8893,
      "Ġinherent": 8894,
      "Ġben": 8895,
      "level": 8896,
      "aser": 8897,
      "asure": 8898,
      "Ġ112": 8899,
      "Ġreality": 8900,
      "Ġreplic": 8901,
      "Ġreferences": 8902,
      "ĠAry": 8903,
      "uride": 8904,
      "change": 8905,
      "ĠRule": 8906,
      "ĠRather": 8907,
      "Ġ349": 8908,
      "ĠFre": 8909,
      "ĠFree": 8910,
      "ĠFund": 8911,
      "ĠBureau": 8912,
      "adsworth": 8913,
      "ĠLook": 8914,
      "ĠWave": 8915,
      "ĠWadi": 8916,
      "Ġ455": 8917,
      "iza": 8918,
      "izable": 8919,
      "ĠGold": 8920,
      "Ġenem": 8921,
      "Ġends": 8922,
      "Ġunus": 8923,
      "Ġunable": 8924,
      "Ġ193": 8925,
      "Ġspaces": 8926,
      "Ġpoore": 8927,
      "Ġjk": 8928,
      "ĠAfricans": 8929,
      "Ġ82": 8930,
      "Ġimply": 8931,
      "ĠStrab": 8932,
      "âĪĴ|": 8933,
      "stituting": 8934,
      "ĠZa": 8935,
      "Ġsupplies": 8936,
      "Ġ124": 8937,
      "ĠProp": 8938,
      "Ġunderstood": 8939,
      "Ġscope": 8940,
      "ĠËĨa": 8941,
      "ĠSept": 8942,
      "ĠAli": 8943,
      "Ġ209": 8944,
      "Ġprinces": 8945,
      "aneous": 8946,
      "Ġ156": 8947,
      "Ġlinearly": 8948,
      "Ġgross": 8949,
      "oubted": 8950,
      "yclohex": 8951,
      "ĠChapters": 8952,
      "reland": 8953,
      "Ġmaximized": 8954,
      "Ġstands": 8955,
      "Ġ249": 8956,
      "Ġcomputations": 8957,
      "Ġskill": 8958,
      "Ġnaturally": 8959,
      "Ġgraphically": 8960,
      "Ġpublication": 8961,
      "Ġviews": 8962,
      "Ġrunning": 8963,
      "Ġletter": 8964,
      "Ġcollabor": 8965,
      "ĠAksumites": 8966,
      "Ġpostulate": 8967,
      "Ġethyl": 8968,
      "annah": 8969,
      "Ġconcentrations": 8970,
      "Ġrecognize": 8971,
      "Ġdissociation": 8972,
      "ĠDespite": 8973,
      "Ġtemperatures": 8974,
      "Ġpolynomials": 8975,
      "Ġï¬Ĥex": 8976,
      "Ġobviously": 8977,
      "orbital": 8978,
      "Ġwooden": 8979,
      "Ġirreducible": 8980,
      "Ġmidpoint": 8981,
      "Ġconjugated": 8982,
      "ĠFormation": 8983,
      "ĠFunctions": 8984,
      "Ġconnecting": 8985,
      "Ġpursuit": 8986,
      "Ġdispers": 8987,
      "ozinc": 8988,
      "ĠNkrumah": 8989,
      "Ġcycle": 8990,
      "ĠThebes": 8991,
      "ĠMachine": 8992,
      "Ġquintile": 8993,
      "Ġprisoners": 8994,
      "Ġvessels": 8995,
      "Ġsubscript": 8996,
      "Ġnegligible": 8997,
      "ĠINTEGR": 8998,
      "Ġkilometres": 8999,
      "ĠBaeyer": 9000,
      "ĠStrabo": 9001,
      "AD": 9002,
      "CR": 9003,
      "LO": 9004,
      "NP": 9005,
      "Ox": 9006,
      "Table": 9007,
      "after": 9008,
      "cur": 9009,
      "hn": 9010,
      "lm": 9011,
      "mose": 9012,
      "pet": 9013,
      "qi": 9014,
      "Ġties": 9015,
      "reet": 9016,
      "Ġsound": 9017,
      "Ġca": 9018,
      "isp": 9019,
      "Ġfilled": 9020,
      "Ġmol": 9021,
      "Ġdark": 9022,
      "oments": 9023,
      "Ġnamed": 9024,
      "Ġnavig": 9025,
      "ĠAO": 9026,
      "etime": 9027,
      "ĠSpect": 9028,
      "ĠCam": 9029,
      "ĠCART": 9030,
      "ĠCayor": 9031,
      "olid": 9032,
      "Ġonwards": 9033,
      "ulus": 9034,
      "ĠPn": 9035,
      "ĠEth": 9036,
      "racies": 9037,
      "ĠMo": 9038,
      "ĠMah": 9039,
      "ĠMolecular": 9040,
      "ĠMuseum": 9041,
      "ĠFOR": 9042,
      "Ġdele": 9043,
      "ellect": 9044,
      "ĠNear": 9045,
      "ĠDimension": 9046,
      "ths": 9047,
      "Ġkth": 9048,
      "Ġenlar": 9049,
      "ributors": 9050,
      "ĠJap": 9051,
      "âĢĿ)": 9052,
      "âĢĿ-": 9053,
      "Ġsubt": 9054,
      "Ġarms": 9055,
      "Ġvalued": 9056,
      "Ġbecoming": 9057,
      "Ġmodeling": 9058,
      "Ġenerget": 9059,
      "Ġsomeone": 9060,
      "ËĨp": 9061,
      "ĠReis": 9062,
      "Ġ148": 9063,
      "ĠYour": 9064,
      "Ġdetect": 9065,
      "Ġmatch": 9066,
      "Ġ2012": 9067,
      "Ġcomplement": 9068,
      "Ġphases": 9069,
      "Ġelabor": 9070,
      "Ġnonzero": 9071,
      "Ġ177": 9072,
      "Ġgoverned": 9073,
      "Ġ161": 9074,
      "Ġ165": 9075,
      "Ġ169": 9076,
      "Ġwavelet": 9077,
      "Ġconsideration": 9078,
      "Ġoccurrence": 9079,
      "Ġtrip": 9080,
      "Ġmaximization": 9081,
      "Ġ257": 9082,
      "Ġsingular": 9083,
      "Ġ287": 9084,
      "Ġcharacterize": 9085,
      "Ġ295": 9086,
      "Ġargues": 9087,
      "Ġcrossed": 9088,
      "Ġdynasties": 9089,
      "Ġcontinues": 9090,
      "Ġpriests": 9091,
      "Ġ384": 9092,
      "ĠWithin": 9093,
      "Ġsubsid": 9094,
      "ĠArabic": 9095,
      "Ġspectral": 9096,
      "Ġdenotes": 9097,
      "Ġdenomin": 9098,
      "Ġreplacing": 9099,
      "Ġnevertheless": 9100,
      "dden": 9101,
      "Ġpayoffs": 9102,
      "Ġsimplify": 9103,
      "ĠInterpre": 9104,
      "Ġ.............................": 9105,
      "Ġrisks": 9106,
      "Ġcatalyst": 9107,
      "Ġsavannah": 9108,
      "Ġdistinguished": 9109,
      "ĠTheorem": 9110,
      "Ġeighteenth": 9111,
      "Ġrecipients": 9112,
      "Ġincoming": 9113,
      "Ġnegroid": 9114,
      "Ġpaintings": 9115,
      "ĠDeriv": 9116,
      "irected": 9117,
      "ĠArchaeological": 9118,
      "Ġcategories": 9119,
      "Eliminations": 9120,
      "Ġstoichiometric": 9121,
      "Ġuniversal": 9122,
      "Ġthirty": 9123,
      "Ġmacro": 9124,
      "Ġshapes": 9125,
      "Ġceremon": 9126,
      "Ġfemale": 9127,
      "Ġinnov": 9128,
      "Ġbattle": 9129,
      "African": 9130,
      "Ġlibrary": 9131,
      "ĠIntermediate": 9132,
      "romagnetic": 9133,
      "()": 9134,
      "Em": 9135,
      "LES": 9136,
      "NH": 9137,
      "Or": 9138,
      "box": 9139,
      "benz": 9140,
      "fron": 9141,
      "gs": 9142,
      "gar": 9143,
      "ker": 9144,
      "mith": 9145,
      "mÏī": 9146,
      "sulf": 9147,
      "Ġtetra": 9148,
      "heres": 9149,
      "hered": 9150,
      "Ġaro": 9151,
      "Ġot": 9152,
      "Ġoffere": 9153,
      "ori": 9154,
      "oration": 9155,
      "itivity": 9156,
      "Ġpix": 9157,
      "Ġwi": 9158,
      "Ġble": 9159,
[...]
